{
  "vocab": [
    "<|endoftext|>",".", ",","!"," ?", "'", "-", "(", ")",
    "s",
    "t",
    "a",
    "g",
    "e",
    "Ġ",
    "d",
    "p",
    "i",
    "o",
    "n",
    "f",
    "h",
    "v",
    "m",
    "j",
    "r",
    "u",
    "l",
    "y",
    "c",
    "k",
    "w",
    "b",
    "q",
    "7",
    "4",
    "1",
    "0",
    "z",
    "3",
    "5",
    "x",
    "9",
    "6",
    "2",
    "Ã",
    "©",
    "8",
    "¨",
    "¶",
    "¡",
    "¯",
    "£",
    "³",
    "¥",
    "§",
    "º",
    "Ń",
    "ª",
    "±",
    "_",
    "ł",
    "¢",
    "½",
    "¼",
    "»",
    "´",
    "¤",
    "¦",
    "¸",
    "Â",
    "²",
    "®",
    "¹",
    "«",
    "¾",
    "Å",
    "į",
    "¬",
    "µ",
    "°",
    "Ł",
    "Ġt",
    "Ġa",
    "Ġth",
    "in",
    "Ġs",
    "Ġthe",
    "er",
    "Ġw",
    "Ġi",
    "Ġo",
    "re",
    "Ġm",
    "Ġb",
    "Ġh",
    "Ġf",
    "nd",
    "Ġc",
    "at",
    "en",
    "ing",
    "es",
    "or",
    "is",
    "ou",
    "Ġd",
    "on",
    "Ġp",
    "Ġand",
    "ll",
    "Ġto",
    "Ġof",
    "an",
    "ed",
    "Ġl",
    "ar",
    "it",
    "Ġin",
    "as",
    "Ġg",
    "Ġis",
    "Ġn",
    "om",
    "Ġe",
    "Ġit",
    "ic",
    "le",
    "ot",
    "Ġwh",
    "ut",
    "al",
    "Ġbe",
    "ct",
    "il",
    "Ġmo",
    "Ġre",
    "st",
    "ly",
    "ve",
    "ie",
    "Ġon",
    "Ġthat",
    "Ġthis",
    "ver",
    "Ġst",
    "ent",
    "ow",
    "ad",
    "ch",
    "ion",
    "Ġy",
    "ay",
    "et",
    "gh",
    "se",
    "Ġr",
    "Ġu",
    "Ġwas",
    "Ġmov",
    "Ġas",
    "ith",
    "Ġan",
    "Ġfor",
    "im",
    "Ġsh",
    "id",
    "Ġfil",
    "Ġfilm",
    "Ġse",
    "all",
    "Ġwith",
    "ke",
    "ce",
    "oo",
    "Ġj",
    "am",
    "ld",
    "Ġyou",
    "Ġhe",
    "Ġmovie",
    "Ġbut",
    "Ġch",
    "Ġha",
    "ir",
    "th",
    "Ġli",
    "ter",
    "ur",
    "Ġnot",
    "ill",
    "Ġk",
    "ally",
    "ers",
    "Ġhis",
    "ro",
    "ck",
    "Ġsu",
    "Ġat",
    "Ġare",
    "ri",
    "ome",
    "ra",
    "ere",
    "Ġde",
    "Ġfr",
    "pe",
    "ould",
    "ul",
    "Ġso",
    "Ġal",
    "Ġhave",
    "Ġsc",
    "Ġv",
    "Ġwe",
    "ght",
    "Ġdo",
    "est",
    "ust",
    "Ġone",
    "Ġact",
    "em",
    "Ġall",
    "Ġex",
    "Ġma",
    "un",
    "Ġwho",
    "Ġab",
    "Ġcom",
    "Ġpl",
    "ess",
    "very",
    "ab",
    "ood",
    "out",
    "Ġne",
    "Ġby",
    "Ġthey",
    "act",
    "ant",
    "ge",
    "pp",
    "ol",
    "Ġher",
    "ies",
    "us",
    "ain",
    "Ġwor",
    "art",
    "Ġlike",
    "Ġfrom",
    "Ġor",
    "Ġcon",
    "Ġsome",
    "ous",
    "el",
    "Ġout",
    "her",
    "ist",
    "op",
    "qu",
    "ast",
    "one",
    "Ġthere",
    "ven",
    "Ġdi",
    "Ġjust",
    "Ġme",
    "ation",
    "Ġun",
    "ough",
    "um",
    "ight",
    "Ġle",
    "Ġlo",
    "Ġpro",
    "ate",
    "au",
    "Ġchar",
    "ich",
    "fe",
    "Ġabout",
    "Ġhas",
    "Ġtim",
    "Ġcan",
    "Ġgo",
    "atch",
    "ory",
    "res",
    "and",
    "Ġ1",
    "Ġman",
    "Ġno",
    "ard",
    "Ġif",
    "ind",
    "Ġwhat",
    "ive",
    "ack",
    "pt",
    "Ġtr",
    "ort",
    "Ġgood",
    "Ġmy",
    "Ġshe",
    "os",
    "Ġany",
    "Ġup",
    "ud",
    "ook",
    "reat",
    "Ġcharact",
    "ak",
    "Ġmore",
    "Ġint",
    "Ġwatch",
    "Ġfe",
    "Ġget",
    "Ġsee",
    "Ġwhen",
    "Ġvery",
    "ong",
    "ig",
    "red",
    "Ġen",
    "Ġwould",
    "ity",
    "Ġcl",
    "Ġstory",
    "Ġbec",
    "Ġtime",
    "ound",
    "Ġeven",
    "Ġhow",
    "ite",
    "ff",
    "ame",
    "Ġam",
    "Ġro",
    "Ġper",
    "able",
    "Ġwhich",
    "Ġonly",
    "Ġbr",
    "Ġreally",
    "Ġhad",
    "Ġar",
    "hing",
    "Ġshow",
    "Ġoth",
    "Ġtheir",
    "ag",
    "Ġscen",
    "ious",
    "Ġwere",
    "itt",
    "ble",
    "Ġte",
    "Ġhim",
    "Ġthan",
    "Ġwill",
    "Ġpe",
    "Ġkn",
    "Ġwell",
    "ap",
    "ure",
    "ick",
    "Ġdid",
    "Ġim",
    "ore",
    "Ġsp",
    "ful",
    "ink",
    "Ġpo",
    "Ġend",
    "are",
    "ment",
    "Ġqu",
    "oy",
    "Ġover",
    "Ġmu",
    "ine",
    "Ġdoes",
    "Ġthem",
    "ars",
    "so",
    "man",
    "our",
    "Ġgreat",
    "nder",
    "Ġbad",
    "ade",
    "ays",
    "Ġbl",
    "Ġbet",
    "Ġad",
    "ci",
    "Ġlook",
    "od",
    "ence",
    "ves",
    "ause",
    "rect",
    "Ġfa",
    "Ġother",
    "Ġmuch",
    "Ġmost",
    "Ġtw",
    "Ġaf",
    "Ġdon",
    "ish",
    "Ġcould",
    "pl",
    "Ġus",
    "irst",
    "Ġjo",
    "Ġbeen",
    "ice",
    "Ġpeop",
    "Ġevery",
    "Ġpre",
    "Ġdis",
    "Ġthr",
    "Ġpeople",
    "og",
    "Ġinto",
    "Ġsa",
    "Ġdirect",
    "Ġalso",
    "int",
    "ue",
    "Ġtoo",
    "Ġbecause",
    "Ġfirst",
    "ple",
    "Ġag",
    "Ġknow",
    "ide",
    "ert",
    "Ġthink",
    "Ġoff",
    "lf",
    "Ġpart",
    "age",
    "Ġreal",
    "ry",
    "Ġco",
    "ass",
    "Ġway",
    "Ġmade",
    "per",
    "Ġwr",
    "Ġthing",
    "nt",
    "Ġits",
    "Ġmake",
    "ors",
    "for",
    "Ġthen",
    "Ġgu",
    "ving",
    "Ġafter",
    "ile",
    "Ġye",
    "ict",
    "other",
    "ose",
    "Ġmak",
    "Ġfl",
    "Ġfun",
    "te",
    "ull",
    "Ġmovies",
    "ated",
    "Ġseem",
    "ary",
    "ces",
    "Ġinter",
    "cc",
    "Ġser",
    "gin",
    "Ġwork",
    "ical",
    "Ġcharacter",
    "Ġaw",
    "Ġplay",
    "iew",
    "ph",
    "Ġcharacters",
    "ress",
    "own",
    "ans",
    "ty",
    "Ġplot",
    "Ġfilms",
    "ually",
    "pect",
    "ance",
    "Ġlove",
    "Ġho",
    "Ġtwo",
    "Ġgr",
    "Ġnever",
    "Ġseen",
    "ach",
    "Ġbeing",
    "fect",
    "ep",
    "Ġwant",
    "Ġmany",
    "Ġlife",
    "self",
    "Ġwhere",
    "Ġyour",
    "Ġdes",
    "Ġsom",
    "Ġacting",
    "iz",
    "ittle",
    "Ġbest",
    "ny",
    "Ġlittle",
    "Ġhor",
    "Ġback",
    "ved",
    "Ġve",
    "wn",
    "urn",
    "Ġsomet",
    "ens",
    "Ġent",
    "ip",
    "Ġsay",
    "Ġthrough",
    "Ġpr",
    "Ġ2",
    "ark",
    "ne",
    "ath",
    "get",
    "Ġrem",
    "Ġcr",
    "ber",
    "Ġever",
    "ang",
    "Ġ19",
    "ake",
    "ily",
    "we",
    "Ġmay",
    "Ġsl",
    "Ġfo",
    "ild",
    "Ġrec",
    "ult",
    "Ġspe",
    "Ġstill",
    "Ġhere",
    "oth",
    "ather",
    "ian",
    "ise",
    "ire",
    "ace",
    "Ġbetter",
    "Ġke",
    "ions",
    "vel",
    "Ġcont",
    "Ġshould",
    "ual",
    "du",
    "Ġmin",
    "Ġperfor",
    "Ġagain",
    "Ġunder",
    "Ġatt",
    "Ġbel",
    "Ġfind",
    "ia",
    "co",
    "Ġnew",
    "Ġthese",
    "Ġgi",
    "de",
    "Ġkill",
    "Ġscene",
    "Ġdr",
    "Ġold",
    "Ġfeel",
    "augh",
    "thing",
    "Ġwhy",
    "igh",
    "Ġwhile",
    "vers",
    "ought",
    "ase",
    "Ġsuch",
    "Ġscenes",
    "Ġsim",
    "Ġnow",
    "ertain",
    "ater",
    "Ġinc",
    "Ġ10",
    "Ġem",
    "Ġsomething",
    "ning",
    "Ġgen",
    "ting",
    "iend",
    "ents",
    "Ġstr",
    "Ġap",
    "Ġcast",
    "Ġhapp",
    "Ġinterest",
    "ably",
    "Ġimp",
    "be",
    "li",
    "me",
    "Ġhum",
    "Ġgir",
    "Ġfam",
    "ng",
    "Ġmus",
    "Ġev",
    "ree",
    "Ġsur",
    "Ġlot",
    "Ġtra",
    "ating",
    "der",
    "ason",
    "Ġfin",
    "Ġpoint",
    "Ġbo",
    "ac",
    "Ġscre",
    "ense",
    "Ġwom",
    "fore",
    "Ġthose",
    "if",
    "Ġperforman",
    "Ġcar",
    "less",
    "ations",
    "alk",
    "Ġres",
    "Ġcou",
    "arly",
    "Ġwatching",
    "Ġthough",
    "mo",
    "Ġdoesn",
    "Ġdec",
    "Ġset",
    "Ġyears",
    "Ġbig",
    "Ġactors",
    "Ġdown",
    "Ġdirector",
    "ying",
    "ror",
    "Ġview",
    "Ġche",
    "ect",
    "ever",
    "joy",
    "Ġyoung",
    "Ġguy",
    "Ġcomp",
    "Ġenjoy",
    "Ġob",
    "ial",
    "Ġdidn",
    "Ġnothing",
    "Ġter",
    "Ġbefore",
    "Ġfact",
    "Ġcomed",
    "Ġfunny",
    "Ġtak",
    "Ġstart",
    "Ġanother",
    "Ġmar",
    "Ġactually",
    "Ġmakes",
    "Ġlong",
    "Ġmis",
    "Ġori",
    "Ġbelie",
    "Ġexce",
    "Ġprodu",
    "Ġfew",
    "Ġhigh",
    "Ġgirl",
    "Ġwar",
    "Ġrel",
    "Ġgoing",
    "ft",
    "ute",
    "Ġes",
    "Ġgot",
    "Ġwo",
    "Ġturn",
    "Ġsame",
    "Ġworld",
    "Ġtri",
    "erson",
    "Ġorigin",
    "iv",
    "Ġsupp",
    "ash",
    "Ġpret",
    "av",
    "az",
    "Ġhard",
    "ience",
    "Ġsub",
    "Ġapp",
    "Ġdiff",
    "Ġbit",
    "ub",
    "Ġsm",
    "eric",
    "Ġown",
    "Ġz",
    "Ġph",
    "aw",
    "ible",
    "Ġinv",
    "Ġed",
    "cial",
    "Ġsin",
    "Ġcomple",
    "Ġthought",
    "ool",
    "ript",
    "wh",
    "Ġstu",
    "oss",
    "Ġquite",
    "Ġfar",
    "Ġfriend",
    "Ġthings",
    "Ġscreen",
    "Ġel",
    "Ġbu",
    "les",
    "ren",
    "Ġwonder",
    "Ġkid",
    "iting",
    "Ġins",
    "Ġlaugh",
    "Ġhorror",
    "Ġright",
    "aut",
    "Ġneed",
    "Ġseems",
    "ction",
    "this",
    "Ġoriginal",
    "Ġbas",
    "ffect",
    "Ġpretty",
    "Ġaround",
    "Ġcam",
    "Ġhowever",
    "Ġtake",
    "Ġacc",
    "Ġeffect",
    "ways",
    "ings",
    "ave",
    "Ġboth",
    "ced",
    "Ġinst",
    "Ġenough",
    "ib",
    "Ġperson",
    "Ġhel",
    "Ġseries",
    "ween",
    "Ġscript",
    "Ġbetween",
    "ically",
    "Ġaction",
    "ately",
    "ons",
    "Ġgive",
    "Ġste",
    "Ġ3",
    "Ġsex",
    "Ġcra",
    "Ġchild",
    "Ġclass",
    "ness",
    "Ġkind",
    "Ġappe",
    "Ġread",
    "Ġtell",
    "Ġop",
    "Ġameric",
    "ris",
    "Ġalways",
    "Ġbeaut",
    "Ġhand",
    "Ġmust",
    "ention",
    "Ġcin",
    "Ġmusic",
    "Ġmom",
    "most",
    "Ġcomedy",
    "Ġcome",
    "ster",
    "Ġwithout",
    "Ġcinem",
    "Ġcons",
    "lly",
    "Ġep",
    "Ġsaw",
    "Ġfamily",
    "Ġrole",
    "Ġlast",
    "Ġreason",
    "Ġstar",
    "Ġgets",
    "Ġlet",
    "Ġtimes",
    "Ġisn",
    "Ġinteresting",
    "Ġput",
    "ug",
    "utes",
    "vious",
    "ale",
    "Ġrev",
    "Ġalmost",
    "Ġmon",
    "Ġleast",
    "icul",
    "Ġart",
    "Ġdone",
    "ouse",
    "Ġaud",
    "Ġwhole",
    "ner",
    "ody",
    "Ġsure",
    "Ġlead",
    "Ġshot",
    "ully",
    "ead",
    "ward",
    "llow",
    "ock",
    "Ġll",
    "Ġexpl",
    "Ġcare",
    "Ġdiffer",
    "its",
    "Ġcle",
    "Ġexpect",
    "Ġbook",
    "app",
    "raph",
    "Ġmight",
    "Ġsound",
    "Ġcomplete",
    "Ġprob",
    "Ġworth",
    "Ġgl",
    "00",
    "Ġrun",
    "ks",
    "ines",
    "Ġcour",
    "hn",
    "Ġide",
    "Ġminutes",
    "ord",
    "Ġmaking",
    "Ġanything",
    "Ġsuper",
    "Ġcall",
    "Ġmain",
    "Ġsch",
    "Ġprobably",
    "Ġwoman",
    "Ġperformance",
    "rible",
    "Ġbegin",
    "Ġsince",
    "Ġday",
    "ell",
    "Ġnight",
    "Ġtv",
    "son",
    "ane",
    "Ġentertain",
    "uring",
    "Ġyet",
    "Ġbor",
    "Ġca",
    "Ġjohn",
    "stand",
    "Ġaway",
    "Ġhelp",
    "Ġboy",
    "Ġpol",
    "Ġmean",
    "Ġworst",
    "cially",
    "Ġext",
    "Ġmat",
    "oney",
    "Ġpres",
    "ail",
    "Ġsequ",
    "Ġadd",
    "Ġty",
    "ign",
    "xt",
    "ange",
    "Ġrather",
    "Ġour",
    "Ġrob",
    "Ġabs",
    "ative",
    "Ġcomm",
    "Ġfound",
    "though",
    "ures",
    "Ġmiss",
    "ition",
    "alog",
    "Ġmind",
    "isod",
    "Ġepisod",
    "ism",
    "als",
    "Ġless",
    "ady",
    "Ġpoor",
    "Ġvers",
    "mend",
    "Ġanyone",
    "Ġplayed",
    "Ġsurp",
    "Ġdef",
    "Ġind",
    "era",
    "ss",
    "Ġhappen",
    "Ġeach",
    "Ġhal",
    "Ġdialog",
    "istic",
    "Ġespe",
    "Ġcre",
    "Ġanim",
    "led",
    "Ġespecially",
    "cond",
    "Ġac",
    "Ġcourse",
    "Ġbud",
    "ject",
    "Ġmur",
    "Ġey",
    "Ġkeep",
    "Ġbelieve",
    "Ġalthough",
    "osed",
    "Ġsk",
    "ember",
    "ten",
    "ling",
    "Ġtrying",
    "Ġlik",
    "Ġjob",
    "Ġsecond",
    "umb",
    "Ġcomes",
    "Ġport",
    "Ġhaving",
    "Ġplace",
    "wood",
    "Ġunf",
    "aster",
    "Ġyear",
    "ret",
    "vd",
    "Ġblack",
    "ither",
    "Ġdifferent",
    "ograph",
    "Ġperfect",
    "Ġconf",
    "rist",
    "Ġgra",
    "Ġhouse",
    "Ġrest",
    "Ġdram",
    "Ġdep",
    "Ġsense",
    "Ġactor",
    "Ġgoes",
    "ife",
    "blem",
    "Ġending",
    "Ġlooking",
    "io",
    "Ġstand",
    "Ġdvd",
    "ah",
    "Ġdan",
    "Ġproblem",
    "Ġlooks",
    "ments",
    "Ġ4",
    "Ġmoney",
    "ates",
    "Ġhead",
    "Ġtrue",
    "Ġwasn",
    "Ġcreat",
    "iter",
    "Ġsomeone",
    "lud",
    "ank",
    "ingly",
    "Ġshort",
    "Ġnor",
    "empt",
    "Ġfan",
    "Ġpow",
    "ney",
    "oint",
    "Ġshows",
    "Ġlow",
    "iece",
    "Ġhalf",
    "ommend",
    "Ġeverything",
    "iful",
    "Ġfollow",
    "Ġmaybe",
    "Ġann",
    "Ġrecommend",
    "Ġvis",
    "ics",
    "Ġfall",
    "Ġthree",
    "Ġonce",
    "Ġtoget",
    "Ġtogether",
    "Ġnice",
    "Ġear",
    "Ġmen",
    "Ġdra",
    "Ġposs",
    "Ġpa",
    "Ġimag",
    "hip",
    "Ġmor",
    "Ġfav",
    "arent",
    "Ġtalk",
    "Ġsing",
    "Ġdet",
    "Ġdeath",
    "Ġamerican",
    "aps",
    "ider",
    "Ġeng",
    "Ġ5",
    "ues",
    "Ġtop",
    "no",
    "Ġsaid",
    "Ġobvious",
    "Ġrom",
    "ality",
    "Ġcertain",
    "Ġaudience",
    "Ġwatched",
    "Ġdre",
    "Ġform",
    "Ġele",
    "Ġeveryone",
    "Ġspecial",
    "Ġleft",
    "Ġsit",
    "Ġtakes",
    "llent",
    "Ġinstead",
    "Ġbeautiful",
    "Ġhour",
    "Ġcor",
    "ortun",
    "Ġdead",
    "Ġplays",
    "ray",
    "Ġunderstand",
    "Ġlater",
    "Ġsy",
    "Ġhimself",
    "Ġreview",
    "Ġelse",
    "ilar",
    "leas",
    "Ġtit",
    "Ġwife",
    "Ġeffects",
    "Ġpar",
    "Ġ8",
    "Ġbre",
    "Ġfather",
    "way",
    "Ġsus",
    "Ġduring",
    "cing",
    "Ġversion",
    "Ġexcellent",
    "Ġchrist",
    "Ġlu",
    "ames",
    "Ġhar",
    "Ġsimp",
    "llywood",
    "ences",
    "gr",
    "Ġheart",
    "Ġrep",
    "Ġhome",
    "Ġexc",
    "Ġseeing",
    "dd",
    "Ġtal",
    "sy",
    "Ġ7",
    "Ġsty",
    "gg",
    "Ġcame",
    "ier",
    "atic",
    "land",
    "uth",
    "the",
    "Ġfight",
    "ited",
    "Ġfriends",
    "Ġass",
    "Ġuse",
    "Ġentire",
    "pid",
    "Ġidea",
    "omb",
    "ists",
    "Ġbeh",
    "day",
    "Ġtru",
    "Ġhist",
    "Ġret",
    "fully",
    "Ġdefin",
    "ional",
    "Ġinclud",
    "Ġremember",
    "Ġfeat",
    "Ġinvol",
    "Ġexp",
    "Ġcol",
    "Ġtot",
    "Ġunt",
    "ides",
    "Ġpict",
    "Ġhuman",
    "Ġdist",
    "ted",
    "ired",
    "itch",
    "Ġref",
    "Ġsad",
    "Ġserious",
    "Ġline",
    "Ġbra",
    "Ġvi",
    "Ġwa",
    "Ġdisapp",
    "vin",
    "ird",
    "Ġmem",
    "Ġcount",
    "Ġvide",
    "Ġra",
    "Ġsimply",
    "Ġbar",
    "Ġhollywood",
    "Ġstupid",
    "Ġdark",
    "ton",
    "Ġdisappoint",
    "Ġcompletely",
    "Ġattempt",
    "Ġbudget",
    "Ġlack",
    "ix",
    "ime",
    "Ġgener",
    "ract",
    "Ġhero",
    "Ġsong",
    "ared",
    "Ġmess",
    "Ġstud",
    "Ġexper",
    "Ġeas",
    "ains",
    "Ġeither",
    "ross",
    "Ġtry",
    "Ġwrong",
    "Ġfull",
    "Ġhope",
    "Ġsw",
    "olute",
    "cy",
    "Ġkids",
    "Ġvo",
    "Ġsupposed",
    "Ġnat",
    "ann",
    "Ġused",
    "Ġir",
    "Ġ9",
    "ets",
    "Ġgiven",
    "Ġexcept",
    "Ġje",
    "Ġopen",
    "Ġfail",
    "Ġword",
    "Ġblood",
    "Ġloc",
    "ru",
    "Ġboring",
    "Ġabsolute",
    "Ġadv",
    "Ġsmall",
    "ins",
    "ys",
    "Ġclassic",
    "Ġwomen",
    "Ġparticul",
    "Ġperformances",
    "itten",
    "Ġalong",
    "Ġlight",
    "Ġcoll",
    "ger",
    "Ġamaz",
    "lease",
    "Ġconc",
    "Ġcamera",
    "Ġproduction",
    "Ġbat",
    "Ġawful",
    "Ġdou",
    "Ġpass",
    "Ġcop",
    "Ġuntil",
    "illi",
    "tle",
    "Ġmid",
    "ography",
    "Ġemot",
    "Ġwon",
    "Ġstars",
    "arr",
    "Ġtruly",
    "cept",
    "Ġsurpris",
    "Ġdri",
    "Ġvideo",
    "my",
    "ond",
    "ently",
    "Ġstre",
    "Ġsho",
    "sc",
    "Ġconsider",
    "Ġexam",
    "Ġhu",
    "Ġschool",
    "Ġviol",
    "Ġsort",
    "ters",
    "Ġmurder",
    "Ġbecom",
    "ied",
    "Ġcut",
    "Ġcouple",
    "velop",
    "elt",
    "Ġrich",
    "Ã©",
    "Ġmich",
    "Ġname",
    "Ġpower",
    "Ġsat",
    "haps",
    "Ġav",
    "Ġportray",
    "Ġflick",
    "Ġnext",
    "Ġge",
    "Ġreg",
    "Ġwonderful",
    "Ġfavor",
    "que",
    "Ġgod",
    "Ġpain",
    "Ġgre",
    "Ġmr",
    "Ġlive",
    "Ġsever",
    "iness",
    "Ġterrible",
    "Ġcred",
    "Ġperhaps",
    "Ġdefinite",
    "aring",
    "ize",
    "Ġslow",
    "cus",
    "Ġface",
    "oles",
    "Ġjack",
    "Ġmoments",
    "ities",
    "ories",
    "Ġrid",
    "Ġcur",
    "Ġcent",
    "Ġspo",
    "Ġplaying",
    "Ġepisode",
    "Ġgetting",
    "ps",
    "ott",
    "ote",
    "Ġhumor",
    "Ġdoing",
    "Ġdevelop",
    "Ġwritten",
    "Ġwalk",
    "ount",
    "Ġfant",
    "Ġwin",
    "Ġactress",
    "arn",
    "Ġoften",
    "Ġmaster",
    "Ġothers",
    "rib",
    "lish",
    "sel",
    "Ġdesp",
    "Ġyes",
    "Ġbrilli",
    "Ġlost",
    "air",
    "ont",
    "ility",
    "ming",
    "unch",
    "cess",
    "Ġgives",
    "mer",
    "Ġpiece",
    "Ġstyle",
    "olog",
    "ork",
    "Ġcinema",
    "Ġmother",
    "Ġtrans",
    "Ġearly",
    "Ġdefinitely",
    "Ġunfortun",
    "Ġcase",
    "Ġguess",
    "Ġtalent",
    "ief",
    "Ġok",
    "ony",
    "Ġitself",
    "Ġmag",
    "Ġsn",
    "Ġfelt",
    "Ġbecome",
    "kes",
    "Ġlines",
    "ush",
    "med",
    "Ġstrong",
    "cum",
    "Ġdav",
    "Ġclose",
    "Ġimpress",
    "ident",
    "Ġside",
    "Ġdialogue",
    "Ġquest",
    "Ġvict",
    "body",
    "Ġcapt",
    "Ġthrill",
    "ler",
    "ael",
    "ibly",
    "ized",
    "Ġwhite",
    "Ġchildren",
    "Ġfinally",
    "Ġcann",
    "Ġliked",
    "Ġcouldn",
    "Ġpast",
    "Ġbro",
    "reme",
    "Ġtown",
    "Ġmention",
    "Ġevil",
    "Ġsucc",
    "Ġson",
    "Ġrent",
    "Ġval",
    "ined",
    "Ġabsolutely",
    "Ġuni",
    "Ġpicture",
    "ouch",
    "Ġworse",
    "Ġtitle",
    "ho",
    "Ġloved",
    "Ġbrilliant",
    "Ġpur",
    "Ġwaste",
    "amp",
    "vis",
    "Ġoh",
    "right",
    "Ġentertaining",
    "Ġagainst",
    "Ġcalled",
    "Ġsupport",
    "Ġdrama",
    "Ġwent",
    "Ġadm",
    "Ġpop",
    "Ġrock",
    "ows",
    "Ġseveral",
    "Ġcertainly",
    "Ġmyster",
    "ern",
    "Ġfans",
    "Ġlives",
    "ery",
    "Ġbeginning",
    "Ġhit",
    "ular",
    "Ġrelations",
    "Ġdeli",
    "ured",
    "Ġoverall",
    "Ġextreme",
    "Ġsomewh",
    "Ġkiller",
    "ley",
    "Ġfair",
    "Ġet",
    "Ġhon",
    "Ġfine",
    "imes",
    "Ġbreak",
    "Ġlist",
    "Ġsuccess",
    "Ġdirection",
    "Ġbased",
    "Ġsec",
    "Ġmichael",
    "illy",
    "enn",
    "oid",
    "Ġpred",
    "Ġpet",
    "ison",
    "Ġseemed",
    "ready",
    "line",
    "Ġdev",
    "tern",
    "Ġbecomes",
    "Ġsou",
    "Ġunc",
    "Ġwanted",
    "Ġmed",
    "rif",
    "Ġdel",
    "Ġpat",
    "aughter",
    "Ġid",
    "Ġinf",
    "Ġalready",
    "Ġexample",
    "ged",
    "pped",
    "Ġdem",
    "Ġwriting",
    "Ġwood",
    "Ġhistory",
    "Ġpresent",
    "ams",
    "Ġstra",
    "Ġtech",
    "Ġpsy",
    "Ġthroughout",
    "Ġvill",
    "Ġpsych",
    "selves",
    "Ġfinal",
    "ric",
    "Ġself",
    "Ġcult",
    "Ġzomb",
    "Ġ200",
    "Ġgame",
    "Ġunfortunately",
    "Ġant",
    "Ġfre",
    "Ġprov",
    "Ġpick",
    "Ġguys",
    "play",
    "Ġdespite",
    "vable",
    "Ġrelationship",
    "Ġnum",
    "amed",
    "Ġfem",
    "Ġred",
    "Ġtouch",
    "Ġamazing",
    "Ġfoot",
    "orn",
    "Ġwants",
    "Ġquality",
    "Ġannoy",
    "Ġocc",
    "Ġmark",
    "Ġviewer",
    "Ġspoil",
    "Ġtotally",
    "Ġmot",
    "king",
    "lling",
    "Ġbehind",
    "Ġsoon",
    "Ġprom",
    "Ġworks",
    "ms",
    "ister",
    "Ġdeser",
    "Ġgun",
    "Ġtre",
    "Ġturns",
    "Ġable",
    "Ġtoday",
    "Ġstuff",
    "Ġswe",
    "Ġ6",
    "Ġtries",
    "Ġlar",
    "Ġmaj",
    "Ġmad",
    "Ġnovel",
    "Ġtom",
    "by",
    "Ġla",
    "Ġimport",
    "Ġmanag",
    "Ġbur",
    "Ġsle",
    "riend",
    "Ġeff",
    "Ġcomment",
    "Ġdays",
    "orge",
    "Ġdocum",
    "Ġdeal",
    "Ġsci",
    "Ġlea",
    "ape",
    "Ġgenre",
    "Ġcost",
    "Ġshoot",
    "Ġcontin",
    "Ġgirls",
    "ination",
    "Ġhell",
    "Ġcrit",
    "Ġprof",
    "Ġsol",
    "Ġstop",
    "Ġenjoyed",
    "Ġage",
    "Ġincred",
    "Ġetc",
    "Ġsusp",
    "ided",
    "yn",
    "Ġbus",
    "Ġeyes",
    "Ġben",
    "Ġtechn",
    "Ġstories",
    "Ġthinking",
    "Ġmusical",
    "Ġapparent",
    "Ġfavorite",
    "Ġintell",
    "Ġfig",
    "unk",
    "Ġdocument",
    "Ġmet",
    "Ġlearn",
    "Ġtyp",
    "ude",
    "Ġlate",
    "Ġdirected",
    "Ġexact",
    "Ġconst",
    "Ġopp",
    "Ġsitu",
    "Ġbrother",
    "Ġsometimes",
    "Ġgave",
    "Ġfore",
    "Ġwish",
    "Ġinde",
    "ma",
    "Ġreturn",
    "Ġstarts",
    "Ġappear",
    "Ġvoice",
    "ution",
    "gan",
    "ered",
    "Ġlevel",
    "iss",
    "Ġhorrible",
    "ts",
    "Ġparts",
    "Ġmajor",
    "Ġevent",
    "Ġhus",
    "ried",
    "Ġtype",
    "Ġmoment",
    "ards",
    "ural",
    "Ġdu",
    "Ġwriter",
    "Ġmatter",
    "Ġspeak",
    "Ġgrou",
    "Ġcity",
    "itive",
    "Ġthemselves",
    "Ġhighly",
    "Ġhot",
    "Ġdaughter",
    "Ġbrit",
    "gu",
    "Ġroom",
    "Ġcinemat",
    "band",
    "ew",
    "ump",
    "Ġobviously",
    "Ġpri",
    "ese",
    "etic",
    "Ġcho",
    "ring",
    "Ġmil",
    "Ġmyself",
    "used",
    "ific",
    "Ġhusband",
    "iet",
    "yp",
    "ung",
    "Ġrobert",
    "Ġtele",
    "Ġanyway",
    "Ġfeeling",
    "Ġbab",
    "Ġnon",
    "Ġstrange",
    "like",
    "leased",
    "antly",
    "Ġheard",
    "Ġchang",
    "Ġkilled",
    "Ġroles",
    "Ġgar",
    "Ġplan",
    "Ġleave",
    "Ġcannot",
    "Ġdecent",
    "Ġking",
    "Ġteen",
    "Ġtook",
    "iculous",
    "cent",
    "Ġliving",
    "Ġfour",
    "Ġrating",
    "ino",
    "Ġjames",
    "astic",
    "dle",
    "Ġeffort",
    "Ġconvin",
    "Ġhilar",
    "ik",
    "ax",
    "Ġnone",
    "Ġhold",
    "Ġmill",
    "bo",
    "Ġweak",
    "ior",
    "Ġmel",
    "Ġmart",
    "Ġsays",
    "Ġger",
    "Ġesc",
    "Ġair",
    "Ġinvolved",
    "dy",
    "Ġhappens",
    "Ġopin",
    "Ġridiculous",
    "Ġviolence",
    "Ġlou",
    "Ġcool",
    "Ġer",
    "Ġfut",
    "up",
    "Ġtold",
    "using",
    "Ġchance",
    "Ġparticularly",
    "antic",
    "Ġseason",
    "ering",
    "Ġknown",
    "Ġpredict",
    "Ġcountry",
    "Ġextremely",
    "Ġpaul",
    "Ġexperience",
    "Ġpolice",
    "Ġhappened",
    "Ġdeep",
    "Ġcrap",
    "Ġshock",
    "Ġcheap",
    "Ġalone",
    "bel",
    "Ġsil",
    "Ġquick",
    "Ġincluding",
    "Ġwouldn",
    "Ġpot",
    "Ġstay",
    "Ġgroup",
    "mak",
    "Ġago",
    "Ġland",
    "Ġvar",
    "Ġlaw",
    "sh",
    "Ġcheck",
    "Ġgore",
    "Ġbring",
    "Ġpolit",
    "Ġmove",
    "Ġforget",
    "Ġsequel",
    "lt",
    "Ġclich",
    "Ġdest",
    "Ġorder",
    "Ġcamp",
    "Ġmoder",
    "Ġbody",
    "Ġfill",
    "Ġcat",
    "Ġill",
    "Ġresult",
    "Ġscore",
    "Ġpos",
    "Ġhilarious",
    "Ġspir",
    "Ġphot",
    "Ġsave",
    "cer",
    "Ġten",
    "ential",
    "Ġrunning",
    "Ġfocus",
    "Ġpay",
    "iff",
    "ether",
    "Ġsecret",
    "Ġplease",
    "ives",
    "Ġsent",
    "Ġsimple",
    "Ġnumber",
    "ien",
    "Ġcoming",
    "ement",
    "ek",
    "nds",
    "Ġpossible",
    "Ġ198",
    "Ġosc",
    "Ġhonest",
    "Ġearth",
    "vision",
    "Ġappro",
    "Ġfrank",
    "Ġannoying",
    "Ġsuff",
    "Ġsimilar",
    "Ġshown",
    "zy",
    "Ġenglish",
    "Ġtreat",
    "Ġmist",
    "Ġhuge",
    "Ġreality",
    "Ġsum",
    "Ġexactly",
    "Ġfur",
    "Ġang",
    "ral",
    "enty",
    "Ġsym",
    "Ġhop",
    "Ġcareer",
    "Ġends",
    "nded",
    "Ġjap",
    "Ġcla",
    "eless",
    "Ġavoid",
    "Ġreleased",
    "Ġones",
    "Ġdisco",
    "Ġ197",
    "use",
    "oon",
    "Ġdavid",
    "Ġbuild",
    "Ġstarted",
    "uck",
    "ances",
    "arch",
    "Ġopinion",
    "Ġusual",
    "urb",
    "Ġjokes",
    "Ġnarr",
    "owing",
    "Ġcinematography",
    "Ġult",
    "Ġmc",
    "itting",
    "side",
    "Ġgold",
    "Ġyourself",
    "Ġmiddle",
    "rench",
    "ational",
    "Ġjapan",
    "ised",
    "Ġstraight",
    "Ġsor",
    "Ġfilmmak",
    "Ġwes",
    "Ġlooked",
    "Ġwilli",
    "Ġwhose",
    "ove",
    "Ġeye",
    "Ġdog",
    "Ġtaking",
    "Ġapart",
    "Ġdoub",
    "Ġmodern",
    "Ġsuspense",
    "Ġru",
    "Ġsam",
    "Ġseriously",
    "Ġsubject",
    "Ġtaken",
    "ground",
    "Ġhours",
    "akes",
    "Ġchange",
    "Ġsign",
    "Ġdocumentary",
    "Ġprot",
    "Ġepisodes",
    "pping",
    "Ġdam",
    "Ġsingle",
    "Ġusually",
    "Ġprem",
    "Ġscary",
    "ator",
    "Ġexist",
    "Ġsomewhat",
    "Ġmostly",
    "Ġut",
    "anger",
    "Ġpull",
    "Ġturned",
    "wards",
    "Ġimportant",
    "Ġdesc",
    "apt",
    "Ġodd",
    "Ġfinds",
    "Ġnear",
    "Ġamong",
    "Ġ20",
    "ival",
    "Ġevents",
    "Ġdisappointed",
    "Ġsaying",
    "Ġbill",
    "Ġfemale",
    "ians",
    "Ġshots",
    "Ġrespect",
    "Ġdue",
    "Ġopening",
    "ec",
    "Ġacross",
    "Ġcontro",
    "otic",
    "ones",
    "Ġparent",
    "Ġmeet",
    "Ġknows",
    "Ġask",
    "Ġcart",
    "Ġintellig",
    "Ġsold",
    "lic",
    "how",
    "Ġhappy",
    "Ġrichard",
    "ina",
    "form",
    "Ġjud",
    "Ġtalking",
    "Ġbritish",
    "Ġappre",
    "Ġbey",
    "Ġfast",
    "ield",
    "ett",
    "ugg",
    "mos",
    "rise",
    "Ġfive",
    "Ġsongs",
    "Ġstun",
    "iety",
    "Ġattention",
    "Ġtelevision",
    "Ġ80",
    "Ġhands",
    "na",
    "Ġfree",
    "Ġpub",
    "Ġlocal",
    "Ġfuture",
    "Ġcreep",
    "Ġremind",
    "Ġeasily",
    "iction",
    "eth",
    "Ġadult",
    "Ġham",
    "Ġdetail",
    "Ġspace",
    "Ġapparently",
    "Ġcomic",
    "Ġvir",
    "Ġbasically",
    "Ġcap",
    "Ġthriller",
    "ots",
    "Ġpleas",
    "ald",
    "Ġemb",
    "ball",
    "Ġatmos",
    "Ġentertainment",
    "Ġsequence",
    "Ġbox",
    "Ġyork",
    "Ġsilly",
    "Ġ199",
    "ike",
    "Ġden",
    "ants",
    "Ġclearly",
    "ished",
    "Ġbeyond",
    "ital",
    "Ġequ",
    "Ġmater",
    "Ġknew",
    "Ġproblems",
    "Ġsupporting",
    "Ġtheat",
    "ubb",
    "Ġupon",
    "Ġaspect",
    "Ġwords",
    "Ġgang",
    "Ġfire",
    "iod",
    "Ġcompl",
    "Ġattack",
    "Ġromantic",
    "Ġdream",
    "Ġaren",
    "Ġtells",
    "Ġsexual",
    "Ġexplain",
    "iel",
    "br",
    "gn",
    "Ġenjoyable",
    "rack",
    "Ġlady",
    "Ġfalls",
    "Ġappreci",
    "ron",
    "Ġmaterial",
    "Ġoscar",
    "Ġsister",
    "Ġforg",
    "ili",
    "Ġnorm",
    "usion",
    "Ġperiod",
    "ension",
    "Ġdull",
    "Ġgrand",
    "Ġcover",
    "Ġwhether",
    "Ġsuck",
    "Ġmystery",
    "Ġmoving",
    "ats",
    "Ġtwist",
    "Ġteam",
    "Ġsets",
    "Ġgeorge",
    "Ġgiving",
    "Ġadapt",
    "Ġintro",
    "Ġwind",
    "Ġquestion",
    "Ġclear",
    "ury",
    "ires",
    "Ġhun",
    "dden",
    "Ġlee",
    "Ġfeature",
    "asy",
    "Ġprevious",
    "Ġjoe",
    "Ġcomb",
    "Ġactual",
    "Ġanimation",
    "nding",
    "Ġmer",
    "ĠclichÃ©",
    "orable",
    "ky",
    "Ġpost",
    "Ġvictim",
    "Ġhaven",
    "Ġaff",
    "ther",
    "Ġultim",
    "Ġdie",
    "Ġappears",
    "Ġtheater",
    "Ġmessage",
    "Ġwait",
    "gy",
    "Ġpredictable",
    "Ġadvent",
    "arely",
    "Ġtrou",
    "Ġsurv",
    "ental",
    "Ġlos",
    "Ġtruth",
    "Ġstoryline",
    "Ġunlike",
    "Ġdoubt",
    "ex",
    "Ġpoints",
    "Ġstri",
    "Ġwithin",
    "Ġabove",
    "Ġbunch",
    "Ġgerman",
    "Ġhate",
    "Ġnearly",
    "Ġri",
    "Ġeasy",
    "Ġherself",
    "Ġvan",
    "Ġclim",
    "Ġver",
    "Ġtheme",
    "wise",
    "Ġsurprised",
    "Ġfrench",
    "Ġhom",
    "Ġinsp",
    "Ġminute",
    "Ġtale",
    "Ġpath",
    "Ġflaw",
    "Ġneeds",
    "path",
    "Ġfeels",
    "Ġsetting",
    "ices",
    "Ġprin",
    "Ġediting",
    "oof",
    "Ġpac",
    "uss",
    "Ġusing",
    "Ġvisual",
    "Ġnamed",
    "icult",
    "Ġthird",
    "Ġviewers",
    "Ġjim",
    "oc",
    "any",
    "Ġworking",
    "Ġlat",
    "Ġgeneral",
    "Ġwater",
    "asc",
    "Ġsugg",
    "Ġpersonal",
    "Ġwestern",
    "Ġsuggest",
    "lin",
    "ana",
    "rit",
    "Ġreve",
    "den",
    "omp",
    "Ġmatch",
    "Ġdrug",
    "Ġhall",
    "Ġdifficult",
    "ressed",
    "Ġfi",
    "Ġsudden",
    "Ġinno",
    "Ġcatch",
    "Ġslight",
    "Ġdeb",
    "Ġbuy",
    "Ġlarge",
    "Ġpal",
    "Ġsuperb",
    "Ġtar",
    "Ġrelease",
    "Ġtypical",
    "Ġcomments",
    "Ġproject",
    "Ġfamous",
    "Ġlots",
    "sw",
    "Ġshowing",
    "ctor",
    "imin",
    "Ġbusiness",
    "Ġdisney",
    "Ġways",
    "Ġfront",
    "he",
    "Ġaccept",
    "Ġwild",
    "Ġtried",
    "Ġbegins",
    "Ġwall",
    "gic",
    "Ġfantastic",
    "Ġwrit",
    "Ġoper",
    "Ġflash",
    "Ġprofess",
    "Ġauth",
    "Ġ195",
    "Ġelements",
    "Ġparents",
    "Ġpure",
    "Ġpeter",
    "Ġcry",
    "oun",
    "Ġobs",
    "Ġexec",
    "Ġmeaning",
    "Ġstage",
    "light",
    "Ġlame",
    "Ġdumb",
    "Ġviewing",
    "eng",
    "Ġsorry",
    "zz",
    "track",
    "Ġkept",
    "Ġjer",
    "Ġhear",
    "Ġleads",
    "Ġrealistic",
    "Ġ70",
    "Ġdance",
    "Ġsoundtrack",
    "Ġdecided",
    "Ġfly",
    "ceed",
    "Ġpark",
    "Ġfilmed",
    "Ġcal",
    "Ġnote",
    "Ġmeans",
    "aught",
    "Ġstreet",
    "sem",
    "Ġgreatest",
    "Ġbrought",
    "com",
    "Ġmix",
    "Ġeventually",
    "host",
    "ppy",
    "Ġgone",
    "Ġghost",
    "Ġlim",
    "Ġutter",
    "Ġliter",
    "Ġsomehow",
    "Ġindeed",
    "bs",
    "Ġintrodu",
    "ining",
    "phere",
    "Ġconne",
    "Ġfigure",
    "Ġjane",
    "ively",
    "ially",
    "Ġparticular",
    "Ġsens",
    "ope",
    "Ġaver",
    "Ġweird",
    "een",
    "Ġcrime",
    "Ġshame",
    "ls",
    "Ġiss",
    "Ġpossibly",
    "Ġdeliver",
    "ening",
    "Ġsequences",
    "Ġsleep",
    "lier",
    "Ġ30",
    "Ġda",
    "Ġzombie",
    "Ġspirit",
    "Ġbackground",
    "back",
    "bert",
    "atever",
    "ising",
    "Ġatmosphere",
    "Ġeur",
    "Ġstrugg",
    "Ġtast",
    "Ġbelievable",
    "Ġreviews",
    "Ġsurprise",
    "Ġvamp",
    "Ġwhatever",
    "omin",
    "Ġimagine",
    "Ġband",
    "Ġmasterp",
    "Ġital",
    "Ġsoc",
    "Ġbeat",
    "Ġange",
    "Ġhy",
    "ob",
    "Ġheav",
    "Ġforward",
    "Ġaverage",
    "Ġ193",
    "Ġbaby",
    "Ġnature",
    "Ġwit",
    "db",
    "ov",
    "Ġamerica",
    "aling",
    "Ġest",
    "Ġlang",
    "Ġfu",
    "Ġexpected",
    "Ġscreenplay",
    "Ġteach",
    "Ġgirlf",
    "Ġach",
    "Ġhur",
    "Ġpublic",
    "Ġtrad",
    "oose",
    "ously",
    "Ġterrif",
    "Ġimdb",
    "Ġchees",
    "Ġmale",
    "Ġwrite",
    "Ġpremise",
    "Ġneeded",
    "Ġmeets",
    "rated",
    "Ġcommun",
    "Ġrand",
    "Ġrevol",
    "Ġromance",
    "Ġleaves",
    "Ġpoorly",
    "Ġexpress",
    "Ġjapanese",
    "where",
    "Ġexplo",
    "key",
    "Ġmod",
    "Ġbecame",
    "Ġgirlfriend",
    "Ġvillain",
    "Ġcostum",
    "Ġsweet",
    "let",
    "Ġthank",
    "Ġkilling",
    "Ġdirectors",
    "Ġunique",
    "Ġfran",
    "mas",
    "iences",
    "Ġsituation",
    "Ġfurther",
    "bers",
    "Ġale",
    "lie",
    "Ġinte",
    "head",
    "Ġotherwise",
    "Ġsick",
    "Ġball",
    "Ġreading",
    "iest",
    "Ġdro",
    "Ġluck",
    "Ġuns",
    "Ġflat",
    "Ġdesign",
    "Ġmonster",
    "Ġbored",
    "Ġlaughs",
    "Ġearlier",
    "Ġstick",
    "Ġemotional",
    "Ġresp",
    "Ġacted",
    "uted",
    "Ġbadly",
    "Ġenc",
    "ages",
    "Ġmass",
    "hood",
    "Ġjour",
    "Ġrefer",
    "Ġolder",
    "Ġfasc",
    "Ġdramatic",
    "Ġfootage",
    "fer",
    "gs",
    "Ġsal",
    "ai",
    "Ġmeant",
    "Ġclos",
    "Ġfantasy",
    "Ġwriters",
    "Ġpopular",
    "Ġmir",
    "Ġscott",
    "cers",
    "Ġconv",
    "Ġemotion",
    "Ġbattle",
    "Ġcredits",
    "Ġplenty",
    "Ġwhom",
    "Ġmemorable",
    "Ġinterested",
    "Ġstep",
    "others",
    "cessary",
    "Ġunless",
    "ges",
    "Ġnud",
    "Ġallow",
    "Ġplus",
    "cious",
    "Ġ196",
    "por",
    "Ġjul",
    "Ġbeauty",
    "Ġles",
    "Ġsouth",
    "Ġrealize",
    "pend",
    "Ġ90",
    "Ġdevelopment",
    "Ġsocial",
    "Ġphil",
    "Ġperfectly",
    "ara",
    "Ġquickly",
    "Ġforced",
    "Ġcond",
    "Ġtotal",
    "Ġdirecting",
    "aked",
    "Ġgay",
    "ogn",
    "Ġtowards",
    "uc",
    "Ġrad",
    "Ġkeeps",
    "Ġclever",
    "Ġpu",
    "Ġsounds",
    "ches",
    "Ġcrazy",
    "Ġmac",
    "Ġconcept",
    "Ġcollect",
    "ula",
    "Ġble",
    "ius",
    "Ġaust",
    "Ġrate",
    "Ġisland",
    "Ġimm",
    "Ġund",
    "Ġsociety",
    "Ġpowerful",
    "Ġstere",
    "Ġprison",
    "Ġgreen",
    "Ġbrings",
    "Ġfeatures",
    "Ġtrash",
    "Ġhistor",
    "Ġoccas",
    "la",
    "Ġjoke",
    "ding",
    "Ġrepe",
    "venge",
    "bor",
    "Ġdoctor",
    "row",
    "Ġpotential",
    "view",
    "Ġansw",
    "Ġmach",
    "Ġpurp",
    "cted",
    "Ġdesper",
    "Ġlangu",
    "aking",
    "Ġwilliam",
    "Ġmasterpiece",
    "Ġworked",
    "thy",
    "Ġcreepy",
    "Ġcru",
    "Ġboys",
    "Ġcreate",
    "gest",
    "Ġincredibly",
    "Ġpie",
    "ises",
    "Ġleading",
    "Ġchristmas",
    "Ġhardly",
    "more",
    "Ġcheesy",
    "rap",
    "Ġburn",
    "Ġphys",
    "Ġbed",
    "olf",
    "ken",
    "Ġamount",
    "Ġkick",
    "Ġcartoon",
    "Ġokay",
    "ips",
    "Ġcolle",
    "Ġbull",
    "Ġbroad",
    "Ġagree",
    "Ġhair",
    "Ġur",
    "Ġfighting",
    "Ġcir",
    "ived",
    "Ġpolitical",
    "Ġbrain",
    "Ġdisturb",
    "Ġinside",
    "Ġadmit",
    "ze",
    "Ġess",
    "isf",
    "Ġcasting",
    "Ġreasons",
    "Ġtelling",
    "Ġneg",
    "Ġcopy",
    "Ġbother",
    "itty",
    "Ġsun",
    "wart",
    "real",
    "Ġfest",
    "ned",
    "Ġattract",
    "Ġportrayed",
    "Ġcold",
    "Ġast",
    "ague",
    "Ġcolor",
    "Ġdoll",
    "Ġdiscover",
    "Ġstereot",
    "Ġextra",
    "Ġprop",
    "Ġrecently",
    "Ġnudity",
    "Ġtur",
    "Ġroll",
    "iliar",
    "Ġfear",
    "Ġdad",
    "Ġfails",
    "Ġvarious",
    "Ġinvest",
    "ries",
    "Ġident",
    "Ġmary",
    "Ġmissing",
    "Ġbri",
    "ey",
    "ivid",
    "Ġmarried",
    "ero",
    "Ġclaim",
    "Ġfred",
    "go",
    "Ġoutside",
    "els",
    "Ġtrack",
    "Ġachie",
    "Ġrecogn",
    "Ġtrail",
    "belie",
    "Ġrap",
    "Ġdepth",
    "rupt",
    "Ġera",
    "Ġsympath",
    "Ġstat",
    "old",
    "Ġrelig",
    "Ġplain",
    "af",
    "Ġmanages",
    "Ġideas",
    "Ġfat",
    "Ġescape",
    "Ġcrew",
    "Ġvictor",
    "Ġcas",
    "Ġdeserves",
    "Ġincredible",
    "Ġdanger",
    "ishing",
    "Ġtalented",
    "Ġrevenge",
    "Ġdisc",
    "Ġcute",
    "Ġsubtle",
    "vern",
    "Ġoffice",
    "ology",
    "itted",
    "Ġreact",
    "Ġ50",
    "Ġremake",
    "Ġexpecting",
    "Ġsto",
    "Ġfairly",
    "onic",
    "Ġattempts",
    "Ġfilled",
    "Ġfilmmakers",
    "ills",
    "Ġmas",
    "Ġunbelie",
    "Ġhen",
    "aces",
    "Ġpositive",
    "berg",
    "Ġ15",
    "lo",
    "Ġrecord",
    "Ġembarr",
    "Ġfit",
    "Ġwrote",
    "Ġscient",
    "Ġmissed",
    "Ġdelight",
    "Ġaccident",
    "Ġanti",
    "Ġsand",
    "Ġbrief",
    "Ġembarrass",
    "Ġremark",
    "Ġlege",
    "Ġwasted",
    "Ġmentioned",
    "Ġrequ",
    "Ġjump",
    "Ġnumb",
    "Ġended",
    "Ġber",
    "rest",
    "Ġcomplex",
    "Ġreach",
    "ok",
    "resh",
    "ram",
    "Ġoffic",
    "uct",
    "medi",
    "Ġdecides",
    "Ġce",
    "Ġchem",
    "Ġfollowing",
    "Ġsolid",
    "Ġdestro",
    "Ġbrothers",
    "Ġcross",
    "arre",
    "Ġscream",
    "Ġcredit",
    "Ġcreated",
    "Ġdetect",
    "Ġ194",
    "Ġimmedi",
    "Ġformer",
    "Ġram",
    "Ġtension",
    "Ġbiz",
    "ained",
    "Ġfamiliar",
    "Ġcompared",
    "Ġpace",
    "Ġforce",
    "friend",
    "ient",
    "Ġcommon",
    "Ġsadly",
    "Ġscience",
    "lusion",
    "ades",
    "Ġfash",
    "Ġamb",
    "istry",
    "Ġsuddenly",
    "Ġproduced",
    "Ġmal",
    "Ġlab",
    "Ġintelligent",
    "Ġcand",
    "Ġparty",
    "agon",
    "Ġdraw",
    "Ġuses",
    "Ġeurope",
    "Ġlanguage",
    "Ġintri",
    "Ġmere",
    "ites",
    "iment",
    "Ġbes",
    "Ġdancing",
    "uses",
    "Ġchoice",
    "Ġcaught",
    "while",
    "lu",
    "Ġcomput",
    "Ġmembers",
    "Ġtough",
    "Ġkills",
    "erv",
    "Ġbreat",
    "Ġchann",
    "Ġwaiting",
    "Ġhol",
    "Ġcontr",
    "Ġapproach",
    "Ġine",
    "Ġcrimin",
    "Ġrece",
    "Ġglad",
    "Ġtravel",
    "Ġspent",
    "Ġcause",
    "acy",
    "Ġimpro",
    "Ġsix",
    "Ġintern",
    "Ġforgot",
    "pper",
    "Ġmagic",
    "Ġdied",
    "Ġweek",
    "itation",
    "iny",
    "Ġalex",
    "Ġsees",
    "Ġimposs",
    "Ġtone",
    "Ġvalue",
    "Ġhaun",
    "Ġwest",
    "Ġmanner",
    "Ġentirely",
    "Ġspend",
    "Ġsuccessful",
    "Ġitalian",
    "izing",
    "Ġcompany",
    "lla",
    "Ġstore",
    "urs",
    "work",
    "Ġcontinu",
    "Ġkey",
    "aging",
    "Ġlaughing",
    "Ġadventure",
    "Ġneither",
    "Ġslightly",
    "Ġran",
    "Ġaccent",
    "Ġslas",
    "Ġwitch",
    "Ġfol",
    "Ġanimated",
    "Ġstate",
    "lict",
    "Ġconvincing",
    "ndon",
    "Ġpointless",
    "Ġfaith",
    "Ġyounger",
    "Ġarri",
    "esome",
    "Ġdim",
    "Ġappreciate",
    "Ġsearch",
    "Ġfunn",
    "Ġregard",
    "Ġconsidering",
    "Ġopportun",
    "Ġexciting",
    "here",
    "Ġbasic",
    "Ġconcern",
    "inger",
    "Ġflo",
    "Ġground",
    "Ġlin",
    "emy",
    "Ġruns",
    "Ġviolent",
    "Ġrated",
    "Ġdin",
    "Ġsinging",
    "Ġwer",
    "Ġbiggest",
    "Ġx",
    "Ġrecent",
    "Ġroad",
    "Ġcentury",
    "Ġnatural",
    "Ġii",
    "Ġmoves",
    "rage",
    "ased",
    "come",
    "orm",
    "well",
    "Ġterror",
    "aine",
    "Ġbrut",
    "Ġtest",
    "Ġbooks",
    "Ġtrouble",
    "bl",
    "Ġportrayal",
    "standing",
    "Ġstereotyp",
    "Ġhid",
    "Ġzombies",
    "Ġultimately",
    "ibility",
    "Ġcarry",
    "Ġmilit",
    "gress",
    "Ġdepict",
    "Ġamusing",
    "Ġnews",
    "Ġbizarre",
    "Ġstudio",
    "Ġpack",
    "Ġrepres",
    "Ġgenu",
    "Ġsuspect",
    "Ġcontrol",
    "ened",
    "Ġted",
    "Ġcritic",
    "Ġheavy",
    "Ġtony",
    "Ġstarring",
    "Ġcompe",
    "Ġsuit",
    "Ġproducers",
    "Ġmakers",
    "Ġseg",
    "uce",
    "Ġlad",
    "to",
    "Ġstan",
    "Ġbomb",
    "ths",
    "Ġtort",
    "irty",
    "room",
    "inary",
    "Ġgenuine",
    "Ġfashion",
    "Ġdrag",
    "Ġslasher",
    "Ġstewart",
    "Ġporn",
    "ilt",
    "Ġawesome",
    "Ġmou",
    "Ġculture",
    "Ġlegend",
    "Ġshowed",
    "Ġleaving",
    "Ġgovern",
    "Ġgri",
    "Ġpurpose",
    "Ġbi",
    "Ġrede",
    "Ġsmith",
    "Ġpers",
    "Ġmagn",
    "Ġpan",
    "Ġauthor",
    "ders",
    "Ġamate",
    "Ġgarb",
    "Ġfascin",
    "Ġsatisf",
    "Ġidi",
    "Ġsmo",
    "Ġfort",
    "Ġeffective",
    "Ġloud",
    "Ġtaste",
    "Ġnormal",
    "iers",
    "Ġsar",
    "Ġproduct",
    "Ġsituations",
    "Ġsqu",
    "Ġjeff",
    "mon",
    "Ġplanet",
    "men",
    "Ġfollows",
    "Ġconclusion",
    "Ġrain",
    "Ġdisg",
    "rent",
    "Ġrecommended",
    "Ġdoor",
    "Ġwise",
    "Ġwal",
    "Ġclub",
    "Ġimpossible",
    "Ġtrip",
    "Ġweren",
    "Ġbarely",
    "Ġfailed",
    "Ġimages",
    "Ġ60",
    "Ġchanged",
    "Ġrepl",
    "ha",
    "Ġfool",
    "Ġconsidered",
    "Ġcow",
    "Ġdecide",
    "ium",
    "Ġprogr",
    "Ġ100",
    "Ġcollege",
    "Ġboss",
    "Ġexception",
    "Ġchemistry",
    "Ġpictures",
    "Ġfavour",
    "Ġhang",
    "Ġpract",
    "Ġassum",
    "Ġimpressive",
    "Ġmi",
    "ham",
    "Ġfake",
    "une",
    "xic",
    "Ġspoilers",
    "oop",
    "Ġgrant",
    "Ġgenius",
    "Ġmillion",
    "Ġ40",
    "uit",
    "ille",
    "Ġcompet",
    "sters",
    "Ġhumour",
    "Ġobsess",
    "iring",
    "Ġwee",
    "Ġfiction",
    "ager",
    "Ġstunning",
    "Ġaudiences",
    "rew",
    "Ġneigh",
    "Ġserv",
    "Ġcharming",
    "Ġaward",
    "Ġtor",
    "Ġminor",
    "Ġaffect",
    "Ġmood",
    "Ġtrain",
    "Ġnoir",
    "Ġimmediately",
    "Ġcomputer",
    "Ġshooting",
    "Ġinvolving",
    "Ġspot",
    "Ġlif",
    "boy",
    "Ġfox",
    "Ġquestions",
    "ribly",
    "cre",
    "Ġleg",
    "Ġruss",
    "rey",
    "Ġredeem",
    "Ġliterally",
    "Ġlonger",
    "Ġpen",
    "ization",
    "Ġprep",
    "Ġthanks",
    "rid",
    "aced",
    "Ġlondon",
    "Ġnotice",
    "Ġthrow",
    "fort",
    "ica",
    "att",
    "Ġfresh",
    "Ġaddition",
    "Ġability",
    "iced",
    "Ġstandard",
    "Ġjourney",
    "Ġmult",
    "Ġspect",
    "Ġchur",
    "Ġmotion",
    "oph",
    "vent",
    "Ġclimax",
    "Ġmarri",
    "Ġbarb",
    "Ġalien",
    "Ġadaptation",
    "Ġtradition",
    "Ġgarbage",
    "Ġdick",
    "Ġmilitary",
    "over",
    "imp",
    "rop",
    "Ġnobody",
    "Ġju",
    "Ġ11",
    "Ġdemon",
    "Ġray",
    "ological",
    "ensive",
    "Ġbott",
    "arily",
    "Ġign",
    "Ġsitting",
    "Ġunex",
    "Ġ00",
    "Ġamateur",
    "Ġsexy",
    "Ġchannel",
    "ifully",
    "Ġinvestig",
    "Ġ18",
    "Ġcharlie",
    "Ġalive",
    "Ġgenerally",
    "Ġsmart",
    "Ġblond",
    "Ġharry",
    "Ġimpression",
    "Ġmysterious",
    "Ġups",
    "Ġsomewhere",
    "Ġsurprisingly",
    "Ġarmy",
    "Ġgrade",
    "Ġleng",
    "aged",
    "Ġtem",
    "Ġsteve",
    "Ġdrive",
    "Ġrandom",
    "Ġchris",
    "Ġpathetic",
    "Ġvalues",
    "Ġappearance",
    "Ġsuc",
    "Ġappeal",
    "Ġgag",
    "Ġbal",
    "Ġmild",
    "Ġsucceed",
    "Ġindust",
    "Ġbatman",
    "Ġfinish",
    "Ġlikes",
    "Ġnaked",
    "gi",
    "Ġthin",
    "Ġdetective",
    "idence",
    "Ġafric",
    "Ġaside",
    "Ġutterly",
    "urd",
    "Ġproducer",
    "opher",
    "sequ",
    "Ġdisturbing",
    "lessly",
    "ta",
    "mark",
    "Ġrare",
    "Ġedge",
    "Ġsoul",
    "Ġindian",
    "cast",
    "die",
    "min",
    "Ġcharm",
    "Ġpieces",
    "thur",
    "Ġing",
    "str",
    "Ġcomedies",
    "Ġinsult",
    "Ġnowhere",
    "cif",
    "sey",
    "Ġgraph",
    "Ġinform",
    "Ġhey",
    "Ġbond",
    "ios",
    "Ġyeah",
    "Ġarch",
    "Ġthreat",
    "Ġunbelievable",
    "lect",
    "aper",
    "Ġserial",
    "wor",
    "Ġdate",
    "Ġtwists",
    "Ġterrific",
    "Ġmistake",
    "Ġbreath",
    "Ġabsurd",
    "Ġreveal",
    "appe",
    "Ġbought",
    "Ġblue",
    "Ġpil",
    "Ġchurch",
    "ified",
    "Ġgem",
    "Ġinit",
    "gar",
    "Ġdefe",
    "Ġthus",
    "Ġoutstanding",
    "Ġbeautifully",
    "Ġfellow",
    "Ġadded",
    "rel",
    "Ġfully",
    "Ġwalking",
    "Ġbottom",
    "Ġshar",
    "Ġpersonally",
    "wr",
    "icious",
    "Ġbob",
    "Ġspl",
    "Ġgovernment",
    "Ġthemes",
    "Ġsurely",
    "Ġmoral",
    "Ġelement",
    "Ġaccur",
    "cuss",
    "Ġhost",
    "ify",
    "Ġna",
    "anna",
    "itions",
    "Ġsell",
    "Ġash",
    "Ġaut",
    "Ġknowing",
    "Ġjew",
    "Ġaffair",
    "Ġmarriage",
    "Ġdrunk",
    "Ġconflict",
    "Ġdrawn",
    "Ġsilent",
    "Ġmount",
    "Ġkelly",
    "Ġsher",
    "Ġthor",
    "Ġchall",
    "Ġnarrative",
    "Ġpresented",
    "vey",
    "Ġcentral",
    "ee",
    "anda",
    "Ġtrust",
    "Ġcinematic",
    "Ġinnocent",
    "Ġchristian",
    "Ġride",
    "Ġnumbers",
    "Ġblock",
    "Ġpassion",
    "Ġchase",
    "Ġjes",
    "Ġequally",
    "cks",
    "Ġhonestly",
    "ressing",
    "Ġremains",
    "Ġparis",
    "Ġjoy",
    "Ġwitness",
    "Ġhos",
    "Ġbruce",
    "Ġring",
    "Ġrip",
    "Ġinterview",
    "ode",
    "Ġconstantly",
    "Ġjones",
    "Ġcostumes",
    "Ġrac",
    "ette",
    "aven",
    "Ġboyfriend",
    "Ġboo",
    "Ġtouching",
    "Ġscar",
    "Ġchick",
    "uster",
    "Ġphotography",
    "Ġmanaged",
    "Ġavail",
    "vert",
    "izes",
    "Ġissues",
    "Ġindivid",
    "Ġintrigu",
    "Ġexpectations",
    "Ġbesides",
    "Ġfell",
    "ging",
    "Ġcharles",
    "Ġsight",
    "Ġshall",
    "Ġdisappointment",
    "Ġsoft",
    "Ġsoldiers",
    "Ġbon",
    "Ġkar",
    "Ġheld",
    "Ġlord",
    "Ġflashback",
    "Ġhenry",
    "Ġslowly",
    "uff",
    "oughly",
    "Ġjean",
    "Ġpresence",
    "Ġnast",
    "Ġopportunity",
    "Ġlikely",
    "Ġthinks",
    "stem",
    "Ġrespons",
    "Ġplaces",
    "arsh",
    "Ġlovely",
    "irt",
    "Ġcomplain",
    "Ġprogram",
    "Ġchristopher",
    "Ġdreams",
    "Ġcompar",
    "Ġlaughable",
    "Ġscenery",
    "Ġbuilding",
    "irth",
    "rie",
    "Ġround",
    "ched",
    "Ġimpl",
    "Ġder",
    "Ġeverybody",
    "Ġdeveloped",
    "Ġaspects",
    "ford",
    "Ġopera",
    "Ġanimals",
    "Ġoffer",
    "Ġcele",
    "Ġsubst",
    "Ġmoon",
    "Ġpage",
    "Ġthrown",
    "mm",
    "ka",
    "Ġimpact",
    "Ġfright",
    "Ġdetails",
    "Ġdisappointing",
    "oud",
    "Ġmedio",
    "Ġsystem",
    "ored",
    "Ġbase",
    "Ġsteph",
    "Ġship",
    "Ġanth",
    "Ġdouble",
    "Ġfeelings",
    "Ġcell",
    "vir",
    "Ġtrick",
    "Ġdiscuss",
    "Ġterms",
    "Ġdifference",
    "Ġsky",
    "Ġug",
    "Ġemotions",
    "Ġindepend",
    "Ġhosp",
    "Ġdescrib",
    "Ġven",
    "Ġcritics",
    "Ġstands",
    "Ġimage",
    "esh",
    "unt",
    "Ġarg",
    "Ġhistorical",
    "Ġcontains",
    "Ġescap",
    "Ġjustice",
    "Ġ12",
    "Ġdies",
    "Ġcrow",
    "ability",
    "gedy",
    "Ġforever",
    "Ġmouth",
    "Ġener",
    "Ġwoods",
    "Ġmartin",
    "Ġlover",
    "Ġhurt",
    "Ġshad",
    "Ġintense",
    "Ġexcuse",
    "orts",
    "Ġproper",
    "ura",
    "Ġindividual",
    "Ġvampire",
    "Ġcloth",
    "con",
    "Ġheaven",
    "Ġsuppose",
    "Ġintended",
    "Ġspeaking",
    "Ġmont",
    "Ġobject",
    "Ġinflu",
    "Ġroy",
    "Ġros",
    "Ġdiv",
    "Ġfestival",
    "Ġacts",
    "Ġclean",
    "Ġdestroy",
    "Ġpra",
    "Ġhotel",
    "ares",
    "Ġdrink",
    "icide",
    "Ġlau",
    "ploy",
    "Ġspoiler",
    "anks",
    "Ġcommer",
    "Ġeat",
    "Ġfilming",
    "Ġlighting",
    "Ġloves",
    "verse",
    "Ġchanges",
    "itude",
    "Ġtwice",
    "Ġmexic",
    "Ġhasn",
    "Ġgrace",
    "Ġww",
    "Ġrace",
    "Ġfle",
    "Ġcurrent",
    "Ġahead",
    "Ġavailable",
    "uous",
    "Ġwid",
    "Ġloose",
    "Ġdisgust",
    "Ġvirt",
    "Ġborn",
    "Ġputs",
    "Ġpun",
    "Ġlikable",
    "Ġcompelling",
    "Ġhoping",
    "Ġsummer",
    "Ġfalling",
    "orter",
    "Ġdubb",
    "Ġhappening",
    "aa",
    "gl",
    "Ġwide",
    "Ġprim",
    "Ġlived",
    "Ġment",
    "Ġsant",
    "Ġwed",
    "Ġfascinating",
    "Ġadults",
    "Ġunivers",
    "Ġfra",
    "Ġsan",
    "round",
    "Ġremain",
    "Ġcanad",
    "icated",
    "Ġmulti",
    "Ġmainly",
    "hol",
    "Ġled",
    "edy",
    "Ġbuff",
    "Ġcreative",
    "off",
    "Ġcro",
    "Ġnick",
    "Ġoli",
    "Ġpainful",
    "Ġtired",
    "inct",
    "Ġmelod",
    "Ġpriv",
    "Ġshakes",
    "Ġsurf",
    "ancy",
    "Ġprotagon",
    "rick",
    "Ġconfusing",
    "Ġvictims",
    "Ġspan",
    "Ġwinning",
    "Ġdar",
    "Ġworthy",
    "Ġflicks",
    "Ġtrailer",
    "Ġresem",
    "Ġuncle",
    "Ġsurround",
    "Ġnorth",
    "Ġhospital",
    "Ġwondering",
    "Ġgorge",
    "Ġnons",
    "Ġhat",
    "Ġeight",
    "Ġpaid",
    "oned",
    "Ġjon",
    "Ġfollowed",
    "Ġnet",
    "Ġartist",
    "Ġbrian",
    "Ġhighlight",
    "Ġcelebr",
    "kn",
    "Ġ13",
    "table",
    "nda",
    "Ġciv",
    "Ġdevil",
    "Ġzero",
    "ushed",
    "Ġrepresent",
    "Ġlatter",
    "Ġconfused",
    "Ġtragedy",
    "Ġquiet",
    "Ġknock",
    "Ġchildhood",
    "bb",
    "aton",
    "Ġaustral",
    "Ġdavis",
    "Ġnightm",
    "Ġoppos",
    "Ġactresses",
    "eman",
    "Ġrape",
    "Ġallen",
    "Ġdecis",
    "Ġstudent",
    "Ġcorrect",
    "Ġnames",
    "Ġinclude",
    "Ġflying",
    "Ġrout",
    "Ġblind",
    "Ġoccasion",
    "abb",
    "Ġgiant",
    "ech",
    "Ġholes",
    "Ġencoun",
    "iday",
    "Ġarm",
    "Ġdread",
    "Ġcommercial",
    "entially",
    "Ġqual",
    "Ġappeared",
    "ander",
    "Ġputting",
    "par",
    "anic",
    "Ġproves",
    "Ġunus",
    "Ġimpressed",
    "Ġunne",
    "Ġcontent",
    "Ġdamn",
    "Ġbank",
    "Ġ0",
    "Ġhook",
    "icip",
    "Ġms",
    "Ġshare",
    "Ġflaws",
    "Ġstone",
    "Ġrelationships",
    "Ġtragic",
    "Ġlaughed",
    "Ġsem",
    "field",
    "ki",
    "Ġfield",
    "ledge",
    "Ġqueen",
    "Ġbehav",
    "Ġcontem",
    "azz",
    "read",
    "Ġmurders",
    "Ġlacks",
    "Ġmediocre",
    "Ġanswer",
    "Ġhide",
    "Ġdeter",
    "Ġdisplay",
    "Ġattractive",
    "Ġnegative",
    "ique",
    "ano",
    "Ġbright",
    "Ġagent",
    "Ġfolks",
    "Ġestab",
    "Ġmerely",
    "aries",
    "Ġgorgeous",
    "Ġimagination",
    "Ġforgotten",
    "Ġadam",
    "Ġfault",
    "Ġprofessional",
    "Ġfaces",
    "Ġachieve",
    "esty",
    "Ġseven",
    "lled",
    "fted",
    "Ġanymore",
    "Ġstates",
    "uts",
    "Ġrh",
    "Ġthoroughly",
    "ency",
    "onna",
    "Ġreminded",
    "Ġdesert",
    "Ġdisappe",
    "Ġmarket",
    "ases",
    "ustr",
    "ini",
    "Ġlisten",
    "Ġdepart",
    "Ġugly",
    "Ġwars",
    "ature",
    "board",
    "Ġresc",
    "Ġban",
    "Ġstation",
    "ribe",
    "Ġbak",
    "Ġbecoming",
    "Ġloving",
    "Ġpersonality",
    "Ġamericans",
    "lor",
    "ilities",
    "Ġaim",
    "Ġbirth",
    "Ġcy",
    "Ġirrit",
    "Ġhelps",
    "Ġjackson",
    "Ġlocation",
    "Ġmelodram",
    "Ġsuperman",
    "Ġfinding",
    "Ġalan",
    "Ġformula",
    "anced",
    "Ġseconds",
    "Ġwooden",
    "Ġcastle",
    "Ġcivil",
    "Ġcollection",
    "Ġdisaster",
    "Ġcamer",
    "Ġdirty",
    "Ġsupposedly",
    "Ġspectac",
    "Ġmut",
    "agger",
    "Ġconsist",
    "Ġscare",
    "Ġnasty",
    "ipp",
    "Ġwerew",
    "Ġinspired",
    "Ġseemingly",
    "Ġacad",
    "Ġprovides",
    "Ġunderst",
    "text",
    "Ġarthur",
    "Ġturning",
    "ples",
    "Ġsteven",
    "Ġharris",
    "Ġvin",
    "Ġskin",
    "Ġshakespe",
    "Ġhidden",
    "Ġbrown",
    "bol",
    "azy",
    "Ġoffers",
    "Ġphone",
    "Ġstandards",
    "Ġgames",
    "yer",
    "raid",
    "orious",
    "Ġwilliams",
    "Ġstuck",
    "Ġanimal",
    "nia",
    "Ġcook",
    "Ġdom",
    "Ġremote",
    "Ġsubt",
    "Ġhorse",
    "Ġlength",
    "pret",
    "Ġrelative",
    "tered",
    "Ġcreature",
    "Ġcourt",
    "Ġfilmmaker",
    "Ġartistic",
    "Ġtherefore",
    "Ġsoldier",
    "hs",
    "Ġwel",
    "Ġelect",
    "pective",
    "Ġangry",
    "Ġford",
    "Ġpunch",
    "Ġvisit",
    "pected",
    "Ġconvers",
    "Ġstock",
    "aur",
    "Ġprotect",
    "Ġstreng",
    "there",
    "Ġindustry",
    "ena",
    "Ġjerry",
    "Ġrented",
    "Ġdeserved",
    "Ġ1950",
    "Ġsoap",
    "Ġthats",
    "Ġchuck",
    "Ġdelivers",
    "Ġallowed",
    "Ġwonderfully",
    "Ġprefer",
    "Ġaware",
    "Ġweap",
    "aff",
    "Ġaccord",
    "Ġwilling",
    "Ġfood",
    "ste",
    "Ġdesperate",
    "Ġrobin",
    "unny",
    "Ġyouth",
    "Ġasks",
    "Ġlyn",
    "Ġbilly",
    "Ġfif",
    "Ġshakespeare",
    "Ġlam",
    "house",
    "Ġstruggle",
    "Ġcompare",
    "Ġclothes",
    "Ġadds",
    "Ġsymbol",
    "Ġsuperior",
    "ands",
    "Ġice",
    "Ġnecessary",
    "Ġmartial",
    "entious",
    "Ġbland",
    "Ġlets",
    "ga",
    "Ġtheatre",
    "pri",
    "Ġready",
    "Ġpicked",
    "Ġinsight",
    "Ġafraid",
    "Ġhorrif",
    "bi",
    "when",
    "Ġcard",
    "Ġapartment",
    "Ġdrugs",
    "Ġredeeming",
    "Ġprocess",
    "Ġempt",
    "Ġunkn",
    "soever",
    "Ġfunniest",
    "Ġwow",
    "Ġdoz",
    "Ġshouldn",
    "Ġunexpected",
    "val",
    "Ġdying",
    "Ġtay",
    "Ġhund",
    "Ġwhatsoever",
    "Ġepic",
    "oted",
    "Ġscientist",
    "Ġgrow",
    "Ġcoun",
    "Ġhack",
    "Ġcab",
    "Ġnaz",
    "Ġhill",
    "Ġwarm",
    "Ġbene",
    "zan",
    "inese",
    "ez",
    "Ġtour",
    "Ġslap",
    "Ġrevolution",
    "Ġmember",
    "Ġvirgin",
    "Ġsoph",
    "under",
    "Ġphysical",
    "Ġinformation",
    "Ġintelligence",
    "Ġgrad",
    "Ġnightmare",
    "Ġrepeated",
    "Ġshocking",
    "Ġskip",
    "Ġrit",
    "Ġmax",
    "Ġbegan",
    "Ġsumm",
    "erous",
    "Ġmemory",
    "Ġchinese",
    "Ġonto",
    "Ġincludes",
    "Ġbear",
    "Ġsyn",
    "Ġkeaton",
    "Ġaccom",
    "Ġkiss",
    "what",
    "Ġsac",
    "Ġenergy",
    "Ġload",
    "Ġmorgan",
    "Ġrarely",
    "Ġcgi",
    "Ġmental",
    "Ġheroes",
    "Ġreligious",
    "Ġlock",
    "Ġoverl",
    "Ġmoved",
    "Ġdeeply",
    "Ġpowers",
    "Ġbrid",
    "Ġengaging",
    "Ġteacher",
    "Ġcriminal",
    "Ġexplan",
    "Ġrub",
    "illa",
    "Ġron",
    "Ġbrand",
    "asure",
    "kin",
    "Ġappropri",
    "Ġtechnical",
    "Ġmcc",
    "Ġstudents",
    "Ġfavourite",
    "Ġlew",
    "Ġeast",
    "Ġindependent",
    "Ġsignific",
    "Ġsuicide",
    "Ġjoan",
    "Ġunnecessary",
    "Ġhint",
    "Ġradio",
    "Ġbrutal",
    "illing",
    "Ġ1980",
    "Ġdeg",
    "Ġrul",
    "Ġemploy",
    "Ġmedia",
    "itz",
    "urally",
    "tend",
    "Ġunreal",
    "Ġintroduced",
    "ube",
    "Ġcore",
    "Ġarea",
    "Ġstephen",
    "Ġwil",
    "Ġcommentary",
    "Ġwedding",
    "Ġlose",
    "Ġpossess",
    "Ġexpert",
    "Ġneighbor",
    "Ġvision",
    "war",
    "Ġdougl",
    "entional",
    "gory",
    "Ġunw",
    "Ġtaylor",
    "Ġhumans",
    "Ġspin",
    "Ġwearing",
    "Ġfab",
    "Ġchap",
    "Ġspeed",
    "Ġgent",
    "Ġheroine",
    "icle",
    "Ġshop",
    "Ġactions",
    "cr",
    "Ġreturns",
    "Ġcurious",
    "herent",
    "Ġgam",
    "Ġbath",
    "Ġcrash",
    "Ġtarget",
    "Ġwashing",
    "Ġtears",
    "Ġhitch",
    "bian",
    "Ġanybody",
    "Ġjohnny",
    "Ġprice",
    "Ġwanting",
    "ued",
    "Ġunusual",
    "Ġdescribe",
    "sp",
    "bc",
    "Ġrese",
    "Ġandy",
    "Ġry",
    "Ġdaniel",
    "Ġmagnific",
    "Ġ000",
    "Ġhelped",
    "Ġkate",
    "Ġhundred",
    "Ġsword",
    "Ġcontrast",
    "rors",
    "Ġsour",
    "ston",
    "Ġbrook",
    "Ġteenage",
    "Ġkidn",
    "Ġscared",
    "Ġprince",
    "Ġjason",
    "Ġrealized",
    "Ġly",
    "Ġchore",
    "Ġjr",
    "Ġdig",
    "Ġtun",
    "Ġplayer",
    "Ġcaptain",
    "Ġthous",
    "Ġresearch",
    "Ġrubb",
    "Ġmike",
    "Ġfinished",
    "Ġlies",
    "Ġguns",
    "Ġnomin",
    "rog",
    "Ġveh",
    "Ġpacing",
    "eper",
    "Ġdouglas",
    "Ġfal",
    "Ġplane",
    "oved",
    "oos",
    "cle",
    "Ġconstant",
    "ked",
    "Ġwarning",
    "col",
    "Ġmachine",
    "Ġarts",
    "Ġcandy",
    "Ġengland",
    "Ġlimited",
    "Ġbog",
    "Ġsis",
    "Ġprogress",
    "Ġriver",
    "Ġangel",
    "Ġholds",
    "otes",
    "ators",
    "Ġknowledge",
    "inter",
    "Ġcomedic",
    "Ġperform",
    "Ġstink",
    "Ġremarkable",
    "Ġrussian",
    "Ġsmile",
    "Ġopt",
    "Ġcontinue",
    "Ġsea",
    "Ġcrowd",
    "Ġpilot",
    "Ġscr",
    "Ġflesh",
    "Ġinvent",
    "time",
    "Ġfreak",
    "Ġpaced",
    "Ġprovide",
    "nat",
    "Ġstret",
    "Ġboard",
    "ĠclichÃ©s",
    "Ġanywhere",
    "iding",
    "Ġheads",
    "Ġens",
    "Ġaccount",
    "urity",
    "Ġhyp",
    "Ġtwenty",
    "bles",
    "Ġtend",
    "Ġcops",
    "Ġintriguing",
    "lev",
    "Ġalt",
    "Ġsurprising",
    "Ġdanny",
    "Ġheal",
    "Ġris",
    "Ġexplos",
    "iac",
    "Ġenter",
    "Ġsav",
    "Ġjan",
    "Ġoccur",
    "pless",
    "Ġaccompl",
    "Ġjose",
    "Ġinteract",
    "Ġacademy",
    "Ġfer",
    "Ġ1970",
    "ners",
    "Ġestablish",
    "Ġunknown",
    "Ġeric",
    "Ġpriest",
    "Ġunint",
    "Ġlovers",
    "Ġwatchable",
    "Ġlay",
    "Ġflow",
    "Ġmotiv",
    "Ġcind",
    "ato",
    "Ġjenn",
    "ruction",
    "irk",
    "Ġvol",
    "Ġtext",
    "Ġplots",
    "Ġaband",
    "Ġaccording",
    "Ġbow",
    "Ġbloody",
    "Ġpresident",
    "Ġdesire",
    "Ġmodel",
    "Ġtorture",
    "Ġpleasure",
    "Ġnicely",
    "Ġcate",
    "Ġnonsense",
    "Ġrecall",
    "Ġfriendship",
    "Ġrus",
    "cis",
    "Ġdor",
    "Ġcreating",
    "Ġenth",
    "Ġdeserve",
    "Ġexplained",
    "Ġmob",
    "Ġjess",
    "Ġplayers",
    "Ġmonths",
    "Ġner",
    "Ġtransl",
    "Ġbelong",
    "Ġeth",
    "Ġhigher",
    "Ġgene",
    "ante",
    "Ġord",
    "Ġgrat",
    "Ġempty",
    "Ġleon",
    "ban",
    "Ġgolden",
    "Ġpretentious",
    "Ġsab",
    "Ġdomin",
    "ras",
    "Ġintent",
    "Ġregret",
    "Ġcars",
    "rical",
    "Ġunderstanding",
    "Ġsaving",
    "Ġloss",
    "Ġdress",
    "iving",
    "Ġdangerous",
    "Ġsafe",
    "ker",
    "za",
    "Ġpurs",
    "Ġreminds",
    "Ġmine",
    "Ġfloor",
    "ograp",
    "Ġsomebody",
    "Ġgig",
    "Ġissue",
    "Ġbelow",
    "kward",
    "ba",
    "Ġhumanity",
    "Ġluc",
    "othy",
    "Ġvhs",
    "Ġlacking",
    "Ġbits",
    "lli",
    "Ġproceed",
    "Ġdressed",
    "Ġladies",
    "apped",
    "Ġalbert",
    "Ġbrave",
    "gue",
    "Ġtoward",
    "Ġintellect",
    "Ġcontrib",
    "Ġfrequ",
    "Ġune",
    "Ġnormally",
    "Ġgrowing",
    "Ġvillains",
    "Ġgal",
    "Ġcommunity",
    "Ġtreated",
    "aph",
    "Ġatro",
    "Ġgary",
    "Ġfate",
    "Ġawkward",
    "odies",
    "Ġeddie",
    "Ġbuck",
    "nold",
    "Ġspanish",
    "stal",
    "ops",
    "Ġinsane",
    "itor",
    "ilst",
    "ousy",
    "Ġmission",
    "Ġhadn",
    "Ġsid",
    "Ġhated",
    "Ġskill",
    "Ġoriginally",
    "Ġinstance",
    "stein",
    "Ġfreed",
    "Ġscreaming",
    "Ġtraditional",
    "Ġwerewolf",
    "bre",
    "Ġfinest",
    "Ġwitty",
    "Ġdriving",
    "Ġspecif",
    "Ġforces",
    "Ġpaper",
    "Ġblame",
    "pher",
    "Ġjudge",
    "aus",
    "Ġeduc",
    "Ġexplanation",
    "asts",
    "Ġsegment",
    "Ġlone",
    "Ġlynch",
    "chester",
    "Ġresponsible",
    "Ġthom",
    "Ġgard",
    "Ġcuts",
    "Ġpartner",
    "ene",
    "Ġsteal",
    "Ġsimpl",
    "Ġnin",
    "Ġcapture",
    "Ġmemories",
    "Ġblonde",
    "nam",
    "Ġandrew",
    "Ġperspective",
    "Ġow",
    "Ġlewis",
    "Ġstruct",
    "Ġgas",
    "Ġdimens",
    "Ġinterpret",
    "Ġstrength",
    "bid",
    "Ġjimmy",
    "atra",
    "Ġfights",
    "Ġcable",
    "hi",
    "Ġstarting",
    "Ġcali",
    "Ġrubbish",
    "Ġwat",
    "Ġfeaturing",
    "Ġful",
    "ipul",
    "Ġlind",
    "Ġaccurate",
    "ading",
    "Ġwhilst",
    "Ġrat",
    "Ġhart",
    "Ġwhenever",
    "Ġeating",
    "Ġcath",
    "Ġmonsters",
    "Ġsepar",
    "Ġbroken",
    "ario",
    "Ġtap",
    "Ġrose",
    "Ġbelief",
    "rom",
    "Ġkevin",
    "Ġasked",
    "father",
    "Ġsucks",
    "Ġuncon",
    "Ġpress",
    "Ġwashington",
    "Ġmixed",
    "Ġcrack",
    "Ġfinale",
    "Ġsed",
    "Ġguard",
    "Ġcage",
    "Ġgotten",
    "Ġcharism",
    "Ġmanage",
    "Ġcameo",
    "Ġdisp",
    "Ġopposite",
    "gers",
    "atory",
    "Ġterribly",
    "Ġdebut",
    "Ġframe",
    "Ġorgan",
    "Ġhitler",
    "Ġdeterm",
    "Ġconnect",
    "soci",
    "Ġsanta",
    "Ġvul",
    "Ġpeace",
    "Ġresol",
    "Ġshallow",
    "Ġconcerned",
    "iven",
    "Ġprivate",
    "ication",
    "Ġanne",
    "Ġcash",
    "Ġ14",
    "Ġnational",
    "Ġpsycho",
    "Ġdealing",
    "bell",
    "ooper",
    "Ġincluded",
    "Ġbuddy",
    "Ġlocations",
    "Ġhoward",
    "Ġali",
    "Ġkinda",
    "Ġsinger",
    "Ġdated",
    "Ġmarry",
    "Ġreun",
    "Ġcarl",
    "Ġboat",
    "Ġgangster",
    "Ġofficer",
    "Ġtarzan",
    "Ġnumerous",
    "Ġtight",
    "Ġnaturally",
    "Ġsurreal",
    "Ġjunk",
    "icate",
    "Ġbound",
    "Ġanthony",
    "ashing",
    "Ġweal",
    "ront",
    "Ġpulled",
    "rays",
    "Ġremembered",
    "Ġconce",
    "ographer",
    "Ġkong",
    "rous",
    "Ġwelles",
    "Ġbehavior",
    "Ġnoticed",
    "Ġwindow",
    "Ġassist",
    "Ġtrek",
    "Ġmans",
    "Ġhumorous",
    "Ġloses",
    "Ġordinary",
    "Ġmarvel",
    "Ġgentle",
    "Ġprove",
    "Ġseat",
    "isa",
    "Ġfet",
    "Ġsurvive",
    "ilog",
    "Ġeuropean",
    "lyn",
    "Ġcalls",
    "Ġdelightful",
    "Ġassoci",
    "Ġbigger",
    "iro",
    "Ġlucky",
    "inc",
    "Ġresults",
    "Ġlake",
    "ville",
    "asm",
    "ym",
    "Ġmarie",
    "Ġfict",
    "Ġinh",
    "ulous",
    "Ġowner",
    "Ġcolumb",
    "Ġidentity",
    "umps",
    "Ġcruel",
    "Ġcass",
    "Ġsean",
    "achel",
    "Ġedited",
    "fortable",
    "Ġproved",
    "Ġreaction",
    "Ġsaved",
    "Ġluke",
    "Ġadvice",
    "Ġjesus",
    "Ġgags",
    "Ġtalents",
    "Ġmitch",
    "Ġminim",
    "Ġdut",
    "Ġwayne",
    "Ġtick",
    "Ġcontext",
    "cise",
    "Ġlearned",
    "Ġphotograph",
    "bled",
    "Ġregular",
    "Ġmagnificent",
    "Ġfare",
    "Ġdry",
    "Ġsole",
    "Ġsatire",
    "Ġprinci",
    "Ġfreddy",
    "just",
    "Ġpleasant",
    "Ġbreaks",
    "Ġgross",
    "aud",
    "elle",
    "Ġsheriff",
    "Ġrealism",
    "Ġprint",
    "Ġsimon",
    "Ġvac",
    "Ġcontempor",
    "Ġcaptured",
    "Ġkeeping",
    "Ġcris",
    "Ġdecade",
    "Ġanton",
    "Ġchallen",
    "Ġmurdered",
    "Ġloy",
    "Ġnic",
    "Ġleader",
    "Ġultimate",
    "Ġstalk",
    "Ġfailure",
    "Ġcontinues",
    "Ġ25",
    "Ġton",
    "Ġstudy",
    "Ġinternational",
    "Ġdeals",
    "ivity",
    "ushing",
    "Ġgord",
    "Ġimagin",
    "orted",
    "Ġoccasionally",
    "Ġincomp",
    "xual",
    "Ġcowboy",
    "Ġphilos",
    "cul",
    "Ġsatur",
    "nders",
    "che",
    "Ġbrilliantly",
    "Ġunfunny",
    "Ġmorning",
    "Ġdecision",
    "Ġmic",
    "Ġskills",
    "icit",
    "Ġreviewers",
    "Ġhandsome",
    "Ġopens",
    "stre",
    "night",
    "natural",
    "aire",
    "ourne",
    "Ġnaive",
    "Ġdyn",
    "Ġcant",
    "Ġruth",
    "Ġbroadway",
    "Ġincre",
    "Ġlie",
    "Ġsite",
    "Ġgrown",
    "vit",
    "yl",
    "Ġgoof",
    "Ġnich",
    "Ġrot",
    "Ġsucked",
    "Ġcomparison",
    "Ġreceived",
    "Ġdun",
    "Ġcircum",
    "Ġhopes",
    "Ġconnection",
    "Ġkim",
    "Ġsheer",
    "Ġpsychological",
    "Ġreferences",
    "Ġgrim",
    "Ġmrs",
    "Ġsnow",
    "Ġclark",
    "Ġemer",
    "Ġhits",
    "do",
    "Ġhood",
    "abor",
    "Ġexistence",
    "Ġgrew",
    "Ġcolour",
    "irm",
    "Ġhay",
    "Ġscrew",
    "Ġessentially",
    "ifer",
    "stick",
    "Ġrelief",
    "Ġkur",
    "down",
    "Ġallows",
    "Ġinex",
    "Ġdimensional",
    "Ġfrankly",
    "Ġaltern",
    "Ġtack",
    "imental",
    "Ġvisually",
    "Ġawards",
    "Ġstol",
    "Ġsuffering",
    "ails",
    "Ġtex",
    "Ġpair",
    "vy",
    "Ġdrew",
    "Ġdiscovered",
    "Ġerotic",
    "after",
    "Ġmini",
    "Ġcontri",
    "Ġexperien",
    "Ġforeign",
    "Ġcenter",
    "Ġsinatra",
    "Ġstanding",
    "Ġdism",
    "Ġunable",
    "Ġcorny",
    "Ġtypes",
    "Ġcorrupt",
    "Ġsharp",
    "Ġveter",
    "Ġfamil",
    "Ġages",
    "Ġexpos",
    "Ġcurt",
    "Ġmanipul",
    "Ġtechnology",
    "Ġtas",
    "Ġviet",
    "Ġkenn",
    "Ġcode",
    "nie",
    "Ġstreets",
    "theless",
    "ruct",
    "Ġpity",
    "aly",
    "asing",
    "Ġrevealed",
    "Ġstereotypes",
    "Ġvs",
    "Ġhearted",
    "Ġbatt",
    "Ġtheaters",
    "Ġsund",
    "Ġnav",
    "Ġnevertheless",
    "Ġbird",
    "Ġlaughter",
    "Ġhung",
    "Ġvisuals",
    "whel",
    "Ġdistract",
    "Ġirritating",
    "Ġspectacular",
    "Ġchief",
    "Ġsubtit",
    "usive",
    "ns",
    "Ġlouis",
    "Ġdelivered",
    "cock",
    "Ġiron",
    "Ġfeet",
    "bling",
    "Ġbag",
    "Ġsacrif",
    "Ġkh",
    "Ġanime",
    "Ġexecuted",
    "Ġglass",
    "Ġevening",
    "ja",
    "Ġlogic",
    "Ġinspir",
    "lock",
    "Ġtedious",
    "Ġshadow",
    "Ġgraphic",
    "Ġincident",
    "Ġbrad",
    "laim",
    "Ġasian",
    "Ġunfold",
    "Ġflashbacks",
    "Ġsilver",
    "Ġcontain",
    "teen",
    "Ġmiser",
    "Ġhaw",
    "Ġcombination",
    "ole",
    "Ġbarbara",
    "Ġcircumst",
    "__",
    "Ġvictoria",
    "Ġgeneration",
    "Ġaid",
    "Ġexploitation",
    "Ġhearing",
    "Ġcyn",
    "erella",
    "Ġredu",
    "gged",
    "Ġemotionally",
    "phy",
    "Ġlesson",
    "Ġthomas",
    "away",
    "Ġproduce",
    "Ġpassed",
    "Ġjoseph",
    "Ġalco",
    "Ġalcohol",
    "cient",
    "interest",
    "Ġslo",
    "Ġtrib",
    "Ġobsc",
    "Ġappealing",
    "Ġspring",
    "iling",
    "osen",
    "Ġpit",
    "Ġparody",
    "Ġfish",
    "Ġbell",
    "Ġreflect",
    "Ġinvolves",
    "Ġfrancis",
    "oring",
    "Ġsake",
    "Ġendless",
    "Ġconvey",
    "agers",
    "Ġmech",
    "Ġtreatment",
    "anned",
    "Ġfreedom",
    "Ġcompan",
    "ashed",
    "Ġrelate",
    "Ġnancy",
    "aint",
    "entionally",
    "Ġenvir",
    "onment",
    "Ġgenuinely",
    "Ġparker",
    "Ġspeech",
    "Ġefforts",
    "Ġtrilog",
    "Ġkillers",
    "xious",
    "ii",
    "Ġtape",
    "Ġgonna",
    "Ġ16",
    "iles",
    "Ġkung",
    "Ġlesbian",
    "Ġward",
    "Ġmeanwhile",
    "Ġdreadful",
    "Ġrange",
    "Ġproud",
    "uls",
    "Ġservice",
    "Ġharsh",
    "Ġfame",
    "Ġfrance",
    "oons",
    "Ġamateurish",
    "Ġphilosoph",
    "Ġafrican",
    "Ġshel",
    "Ġbreaking",
    "Ġfootball",
    "Ġgordon",
    "Ġblow",
    "Ġattitude",
    "angers",
    "Ġheck",
    "Ġmort",
    "Ġstopped",
    "Ġadvert",
    "Ġsend",
    "Ġbringing",
    "atter",
    "Ġhaunting",
    "Ġbuilt",
    "Ġraw",
    "Ġpin",
    "Ġswitch",
    "Ġnative",
    "Ġfairy",
    "Ġdubbed",
    "Ġvehicle",
    "Ġnecess",
    "Ġsympathetic",
    "Ġunp",
    "cl",
    "Ġjennifer",
    "Ġassass",
    "Ġcapable",
    "Ġrefres",
    "Ġanna",
    "Ġevidence",
    "Ġdriven",
    "Ġah",
    "Ġlud",
    "Ġadmir",
    "Ġchosen",
    "Ġuk",
    "Ġcaused",
    "Ġmiles",
    "Ġhallow",
    "Ġexcited",
    "Ġbeach",
    "Ġfamilies",
    "Ġvampires",
    "Ġrescue",
    "Ġhunter",
    "Ġdynam",
    "ugos",
    "Ġende",
    "writer",
    "Ġunderrated",
    "Ġreviewer",
    "und",
    "Ġgratuit",
    "arded",
    "Ġvon",
    "Ġdescribed",
    "Ġversions",
    "Ġya",
    "Ġinept",
    "Ġwound",
    "don",
    "Ġruined",
    "Ġfro",
    "Ġblockb",
    "erie",
    "Ġtrilogy",
    "Ġvague",
    "Ġaged",
    "Ġrefreshing",
    "Ġappropriate",
    "Ġmeeting",
    "Ġdepressing",
    "Ġpropag",
    "Ġchan",
    "Ġchoose",
    "Ġrise",
    "win",
    "ques",
    "Ġcinderella",
    "Ġfictional",
    "Ġclue",
    "Ġfortun",
    "burn",
    "Ġmajority",
    "Ġlargely",
    "Ġcliff",
    "iled",
    "Ġportraying",
    "Ġexcit",
    "Ġoverlook",
    "Ġpainfully",
    "Ġexpression",
    "Ġvillage",
    "Ġcounter",
    "rant",
    "Ġmoore",
    "Ġcrappy",
    "oul",
    "Ġspoof",
    "Ġcreates",
    "rence",
    "kend",
    "Ġminds",
    "Ġseasons",
    "Ġbelieves",
    "Ġcanadian",
    "Ġ1930",
    "Ġcit",
    "Ġcosts",
    "dom",
    "sell",
    "ums",
    "Ġpopul",
    "Ġrow",
    "Ġrental",
    "Ġtheatrical",
    "usi",
    "Ġmatters",
    "nal",
    "Ġoverly",
    "Ġextraord",
    "Ġfacts",
    "Ġ17",
    "Ġsitcom",
    "Ġprior",
    "Ġrobot",
    "Ġreligion",
    "Ġentertained",
    "Ġconsequ",
    "Ġade",
    "Ġwinner",
    "Ġprovo",
    "Ġliber",
    "Ġdiscovers",
    "ugs",
    "Ġclassics",
    "fornia",
    "Ġportrays",
    "inis",
    "Ġgratuitous",
    "aken",
    "Ġpreach",
    "Ġrevel",
    "fit",
    "Ġspark",
    "Ġdescript",
    "Ġexecut",
    "Ġcommand",
    "Ġoffe",
    "stream",
    "mar",
    "Ġsha",
    "Ġlearns",
    "walk",
    "Ġprotagonist",
    "Ġreporter",
    "ca",
    "anged",
    "Ġfits",
    "Ġassume",
    "Ġstrongly",
    "Ġlower",
    "Ġprost",
    "Ġinevit",
    "Ġrules",
    "Ġpitch",
    "Ġsull",
    "Ġfalse",
    "aret",
    "Ġpractically",
    "Ġhalloween",
    "rix",
    "Ġryan",
    "Ġsequels",
    "abe",
    "Ġgory",
    "Ġcub",
    "Ġwre",
    "Ġfrustr",
    "aming",
    "Ġsubstance",
    "Ġcontemporary",
    "Ġmeth",
    "Ġcovered",
    "Ġouts",
    "Ġswim",
    "Ġspy",
    "Ġvote",
    "Ġchose",
    "Ġauthent",
    "Ġmatt",
    "Ġexperiment",
    "Ġnu",
    "Ġrod",
    "Ġsports",
    "Ġgermany",
    "Ġdragon",
    "gm",
    "raction",
    "ache",
    "Ġtalks",
    "Ġneat",
    "Ġbodies",
    "Ġroutine",
    "Ġwrest",
    "Ġlum",
    "Ġdepicted",
    "Ġancient",
    "Ġdoom",
    "first",
    "Ġbik",
    "bur",
    "Ġig",
    "iser",
    "Ġexcitement",
    "Ġrough",
    "osh",
    "ument",
    "oom",
    "Ġcontrovers",
    "Ġquir",
    "Ġcares",
    "Ġcitiz",
    "Ġexcess",
    "Ġsaturday",
    "Ġforth",
    "Ġcompos",
    "Ġunfor",
    "Ġcaptures",
    "Ġflor",
    "Ġunrealistic",
    "Ġhandled",
    "Ġhunt",
    "ama",
    "Ġdisgusting",
    "Ġcutting",
    "aded",
    "Ġembarrassing",
    "mes",
    "Ġtill",
    "Ġconvinced",
    "Ġguest",
    "Ġcontinuity",
    "ault",
    "Ġcostume",
    "Ġurban",
    "Ġpromise",
    "Ġmountain",
    "Ġlevels",
    "Ġcapital",
    "Ġspell",
    "zo",
    "Ġaustralian",
    "Ġfactor",
    "isher",
    "Ġobsessed",
    "Ġheight",
    "Ġwarri",
    "Ġwelcome",
    "pr",
    "Ġpitt",
    "Ġasking",
    "Ġhaunted",
    "cies",
    "Ġtexas",
    "Ġinitial",
    "Ġhanded",
    "Ġforgettable",
    "Ġmultiple",
    "Ġgh",
    "Ġthoughts",
    "levant",
    "Ġoliver",
    "Ġpowell",
    "leep",
    "Ġcreatures",
    "Ġenthusi",
    "Ġcarp",
    "Ġpropaganda",
    "Ġshark",
    "Ġtraining",
    "Ġnominated",
    "Ġsemi",
    "Ġlear",
    "icked",
    "Ġprofessor",
    "Ġlousy",
    "Ġanderson",
    "Ġharm",
    "Ġjung",
    "Ġkath",
    "sen",
    "osexual",
    "Ġadventures",
    "atically",
    "Ġtow",
    "Ġbush",
    "ndam",
    "Ġcharl",
    "eness",
    "Ġteenager",
    "lem",
    "Ġ192",
    "cra",
    "Ġlink",
    "Ġpurch",
    "ients",
    "Ġwins",
    "Ġlandsc",
    "Ġmakeup",
    "Ġdinos",
    "Ġsatisfying",
    "Ġdeadly",
    "acing",
    "Ġreminis",
    "Ġdust",
    "Ġunfortunate",
    "Ġarrest",
    "Ġwilson",
    "Ġrelatively",
    "Ġdud",
    "Ġruin",
    "Ġintellectual",
    "Ġhanging",
    "Ġviewed",
    "Ġuncom",
    "pir",
    "Ġvirtually",
    "Ġlawyer",
    "Ġgranted",
    "anagh",
    "oooo",
    "Ġanger",
    "Ġmaint",
    "Ġexagger",
    "Ġdece",
    "Ġbbc",
    "chy",
    "abeth",
    "Ġmum",
    "Ġaccomp",
    "Ġasleep",
    "Ġflight",
    "Ġliners",
    "Ġinvis",
    "Ġpresum",
    "Ġagre",
    "Ġcontrived",
    "Ġinner",
    "Ġpile",
    "Ġnichol",
    "Ġvoices",
    "Ġrival",
    "Ġjackie",
    "reg",
    "Ġwalks",
    "Ġmethod",
    "Ġcircumstances",
    "Ġatrocious",
    "Ġinvolve",
    "Ġuniversal",
    "Ġpier",
    "Ġauthentic",
    "Ġserves",
    "Ġlosing",
    "roph",
    "oman",
    "Ġforest",
    "Ġsne",
    "Ġpresents",
    "Ġreject",
    "Ġoverwhel",
    "ilty",
    "Ġenvironment",
    "Ġsupernatural",
    "Ġrelated",
    "Ġhopefully",
    "gging",
    "Ġcriticism",
    "Ġweekend",
    "Ġlatest",
    "Ġbaseball",
    "rad",
    "Ġirish",
    "Ġhitchcock",
    "Ġroger",
    "Ġmetal",
    "Ġinnoc",
    "Ġdesigned",
    "Ġmovement",
    "ship",
    "Ġaddict",
    "Ġbett",
    "Ġwhe",
    "Ġemph",
    "Ġextras",
    "Ġuninterest",
    "Ġfreeman",
    "Ġplans",
    "Ġexecution",
    "point",
    "Ġpoign",
    "oting",
    "Ġsecurity",
    "ket",
    "Ġunited",
    "Ġcontest",
    "port",
    "Ġnotch",
    "eds",
    "Ġbelieved",
    "Ġstructure",
    "Ġlon",
    "Ġsection",
    "Ġedward",
    "Ġshut",
    "Ġnut",
    "Ġwing",
    "Ġteenagers",
    "Ġsuffers",
    "Ġtransform",
    "Ġclaims",
    "Ġpreviously",
    "Ġnation",
    "Ġfix",
    "Ġkore",
    "Ġcaine",
    "eg",
    "Ġappl",
    "itute",
    "ached",
    "Ġpromising",
    "Ġcontract",
    "Ġbore",
    "Ġprovided",
    "Ġsource",
    "Ġlion",
    "Ġludic",
    "jo",
    "Ġbutt",
    "telling",
    "cher",
    "Ġwoody",
    "Ġpatrick",
    "Ġbitter",
    "Ġbros",
    "Ġded",
    "Ġske",
    "Ġfocused",
    "Ġscale",
    "Ġcrude",
    "Ġdeaths",
    "Ġcartoons",
    "Ġknight",
    "Ġmainstream",
    "Ġjohnson",
    "imate",
    "not",
    "Ġmirac",
    "wy",
    "Ġprime",
    "Ġreput",
    "ya",
    "Ġaliens",
    "ada",
    "Ġblah",
    "Ġpassing",
    "Ġposition",
    "Ġcategory",
    "Ġaccents",
    "Ġba",
    "Ġweeks",
    "Ġunlikely",
    "Ġdegree",
    "Ġtiny",
    "Ġeliz",
    "uel",
    "Ġcolon",
    "Ġtitanic",
    "Ġwidow",
    "Ġacqu",
    "Ġ1990",
    "Ġspeaks",
    "Ġsteals",
    "Ġdrop",
    "Ġwalked",
    "uther",
    "Ġcloser",
    "Ġtouches",
    "Ġpolitics",
    "Ġgritty",
    "ali",
    "mented",
    "Ġexperiences",
    "Ġfigured",
    "Ġfeatured",
    "Ġstolen",
    "Ġpolic",
    "Ġdistrib",
    "Ġshocked",
    "Ġatl",
    "Ġtable",
    "Ġdemonstr",
    "Ġgain",
    "gen",
    "Ġfigures",
    "Ġimagery",
    "apping",
    "ndy",
    "Ġhardy",
    "Ġunconvin",
    "Ġree",
    "Ġjaw",
    "Ġeld",
    "Ġlog",
    "Ġunbe",
    "Ġchair",
    "Ġlem",
    "roll",
    "Ġped",
    "Ġmassive",
    "Ġstruggling",
    "Ġinfluence",
    "Ġcommit",
    "Ġcultural",
    "Ġmask",
    "Ġconvince",
    "formed",
    "Ġcontact",
    "Ġmurphy",
    "Ġroman",
    "Ġlisa",
    "Ġevol",
    "ita",
    "Ġjam",
    "Ġgall",
    "Ġwalter",
    "dies",
    "Ġnarration",
    "Ġteens",
    "Ġbarry",
    "Ġpregn",
    "Ġhoff",
    "Ġtechnically",
    "Ġmusicals",
    "Ġangles",
    "Ġnetwork",
    "Ġcommitted",
    "Ġmistakes",
    "Ġpaint",
    "Ġvietnam",
    "Ġconfess",
    "Ġjay",
    "Ġmelodrama",
    "Ġfrightening",
    "Ġoutrage",
    "Ġprincess",
    "Ġsubpl",
    "ression",
    "Ġdriver",
    "Ġhammer",
    "Ġhorribly",
    "etime",
    "Ġhi",
    "Ġjail",
    "Ġrings",
    "Ġsisters",
    "Ġdozen",
    "Ġmature",
    "udd",
    "Ġoffensive",
    "Ġnotorious",
    "Ġsarah",
    "Ġfriendly",
    "rell",
    "Ġfaithful",
    "Ġperformed",
    "Ġhired",
    "Ġenemy",
    "Ġuninteresting",
    "Ġnude",
    "Ġthumb",
    "Ġfavorites",
    "Ġunderstood",
    "Ġformat",
    "Ġshr",
    "Ġdogs",
    "zel",
    "athan",
    "Ġcarol",
    "Ġmyth",
    "Ġsink",
    "Ġholding",
    "Ġcooper",
    "Ġsuffer",
    "Ġpush",
    "Ġfaced",
    "Ġdepartment",
    "Ġoffered",
    "Ġdollars",
    "enced",
    "Ġcabin",
    "Ġstrict",
    "Ġhip",
    "Ġsorts",
    "Ġcring",
    "Ġabuse",
    "Ġsuspenseful",
    "Ġcolors",
    "Ġrequired",
    "Ġhong",
    "Ġnostal",
    "Ġhonor",
    "Ġfemin",
    "Ġidiot",
    "Ġsympathy",
    "ulp",
    "Ġveteran",
    "Ġthro",
    "Ġrussell",
    "ida",
    "Ġdirectly",
    "Ġcous",
    "Ġloyal",
    "Ġexperienced",
    "Ġemphas",
    "Ġconfront",
    "Ġcaptiv",
    "Ġchanging",
    "Ġphilip",
    "Ġsple",
    "Ġconcent",
    "Ġze",
    "Ġmst",
    "Ġdarkness",
    "Ġfranch",
    "Ġexplains",
    "Ġned",
    "Ġmagical",
    "Ġblown",
    "ds",
    "Ġreputation",
    "Ġdub",
    "Ġmexico",
    "Ġlugos",
    "Ġlugosi",
    "Ġburns",
    "Ġtoler",
    "Ġsurviv",
    "Ġsag",
    "Ġtrapped",
    "ennis",
    "Ġdonald",
    "Ġdean",
    "Ġsurprises",
    "Ġalice",
    "Ġconversation",
    "Ġtreasure",
    "Ġjeal",
    "Ġappreciated",
    "Ġsensitive",
    "Ġslapstick",
    "Ġabandoned",
    "Ġtorn",
    "Ġgro",
    "Ġdemons",
    "Ġ1960",
    "Ġlegendary",
    "arian",
    "outs",
    "Ġmarg",
    "umbling",
    "Ġrobb",
    "Ġhugh",
    "Ġain",
    "Ġsignificant",
    "Ġhoffman",
    "Ġaka",
    "Ġghosts",
    "fic",
    "lying",
    "Ġlonely",
    "Ġbourne",
    "ausible",
    "Ġreveals",
    "Ġunconvincing",
    "Ġimprove",
    "Ġbreatht",
    "Ġtwisted",
    "Ġencou",
    "yc",
    "Ġrachel",
    "Ġbern",
    "Ġmgm",
    "Ġviews",
    "Ġpig",
    "Ġeverywhere",
    "Ġbeast",
    "Ġcombined",
    "Ġdivor",
    "Ġmock",
    "Ġmeat",
    "Ġqualities",
    "Ġrecognize",
    "Ġlincol",
    "Ġlincoln",
    "Ġteeth",
    "Ġnazi",
    "Ġspends",
    "Ġmath",
    "Ġcrying",
    "Ġworry",
    "Ġwear",
    "Ġbothered",
    "aren",
    "Ġstatement",
    "Ġrush",
    "Ġthankfully",
    "Ġtoy",
    "Ġjungle",
    "Ġworthwhile",
    "Ġbranagh",
    "olic",
    "Ġaccidentally",
    "insp",
    "Ġrolling",
    "ighter",
    "Ġcraw",
    "Ġeffectively",
    "Ġlust",
    "Ġsubsequ",
    "Ġterm",
    "Ġamazed",
    "Ġspite",
    "Ġvariety",
    "Ġsurface",
    "Ġtree",
    "acc",
    "Ġarr",
    "Ġafrica",
    "mond",
    "Ġtax",
    "ching",
    "Ġpraise",
    "Ġmexican",
    "Ġideal",
    "Ġstayed",
    "Ġgrave",
    "Ġfacial",
    "nan",
    "Ġinvisible",
    "Ġparticip",
    "Ġangle",
    "Ġvia",
    "atives",
    "Ġbeloved",
    "Ġupset",
    "Ġchamp",
    "Ġadmitted",
    "Ġdescription",
    "Ġcorpor",
    "Ġsup",
    "Ġoccasional",
    "Ġirre",
    "Ġlol",
    "Ġtask",
    "Ġsubtitles",
    "Ġshape",
    "Ġchina",
    "alling",
    "Ġproductions",
    "Ġgrey",
    "nn",
    "Ġcourage",
    "amor",
    "Ġintegr",
    "Ġsplend",
    "now",
    "Ġemma",
    "ioned",
    "cho",
    "Ġwhoever",
    "Ġdal",
    "mother",
    "Ġstarred",
    "Ġfriday",
    "Ġpulls",
    "Ġtheory",
    "Ġgreater",
    "Ġtales",
    "Ġcalifornia",
    "Ġsi",
    "Ġanswers",
    "Ġcole",
    "Ġrights",
    "Ġdeeper",
    "Ġunderground",
    "Ġschem",
    "Ġdiss",
    "Ġscenario",
    "Ġautom",
    "Ġcock",
    "Ġstays",
    "Ġsir",
    "Ġdownright",
    "Ġintens",
    "Ġfoster",
    "itious",
    "kins",
    "tes",
    "via",
    "Ġpainting",
    "Ġtear",
    "Ġdecades",
    "Ġblockbuster",
    "Ġsen",
    "Ġinhab",
    "Ġmildly",
    "Ġseek",
    "Ġbuying",
    "Ġdistinct",
    "Ġargu",
    "llen",
    "Ġkinds",
    "lig",
    "Ġdude",
    "Ġpacino",
    "Ġafterno",
    "Ġjobs",
    "Ġextent",
    "Ġguilty",
    "Ġencounter",
    "Ġmirror",
    "fo",
    "Ġmatrix",
    "Ġvincent",
    "Ġprevent",
    "Ġignor",
    "Ġeve",
    "Ġ2000",
    "Ġuniverse",
    "belief",
    "Ġquirky",
    "Ġtruck",
    "ado",
    "tended",
    "Ġrick",
    "Ġignore",
    "Ġsuccessfully",
    "Ġstrip",
    "Ġrule",
    "Ġmidnight",
    "Ġscares",
    "Ġrealizes",
    "Ġgather",
    "Ġbul",
    "Ġdepiction",
    "Ġdevice",
    "Ġalas",
    "Ġsunday",
    "Ġgoth",
    "Ġborder",
    "atherine",
    "Ġfel",
    "Ġleslie",
    "ĠclichÃ©d",
    "Ġsusan",
    "Ġlifetime",
    "Ġken",
    "Ġfourth",
    "Ġstom",
    "Ġlearning",
    "Ġlights",
    "Ġpian",
    "Ġplant",
    "Ġrank",
    "Ġcus",
    "Ġcomical",
    "ffe",
    "Ġclosing",
    "Ġinspiration",
    "Ġexamples",
    "Ġoverd",
    "Ġheaded",
    "Ġdelivery",
    "Ġstatus",
    "Ġplaced",
    "Ġdemand",
    "Ġdisbelief",
    "iat",
    "Ġfed",
    "Ġcalling",
    "Ġtremend",
    "Ġstorm",
    "Ġwand",
    "reh",
    "Ġinitially",
    "Ġcust",
    "Ġartists",
    "Ġshir",
    "Ġtong",
    "Ġpound",
    "Ġvast",
    "Ġdesperately",
    "Ġrogers",
    "Ġgle",
    "Ġstudios",
    "Ġturkey",
    "Ġara",
    "Ġaccess",
    "Ġjournal",
    "Ġigno",
    "Ġfeed",
    "Ġsleeping",
    "iger",
    "Ġportra",
    "Ġnom",
    "Ġaccompan",
    "Ġstanwy",
    "Ġbettie",
    "Ġdisag",
    "Ġlibr",
    "Ġcriminals",
    "Ġrochester",
    "Ġheavily",
    "Ġalright",
    "Ġsophistic",
    "Ġchilling",
    "Ġvivid",
    "Ġdere",
    "Ġhalfway",
    "Ġcannib",
    "Ġserve",
    "Ġprofound",
    "Ġmouse",
    "Ġextraordinary",
    "Ġconsum",
    "Ġsleazy",
    "Ġoriginality",
    "Ġjessica",
    "Ġmetaph",
    "Ġpaying",
    "Ġtag",
    "Ġmurderer",
    "Ġsummary",
    "Ġcher",
    "Ġshif",
    "Ġcorner",
    "Ġlaura",
    "Ġcomplicated",
    "yle",
    "Ġlucy",
    "Ġiran",
    "Ġreminiscent",
    "chant",
    "nes",
    "Ġindul",
    "Ġarrives",
    "Ġcarries",
    "Ġdoc",
    "Ġhandle",
    "Ġdennis",
    "eral",
    "Ġprepared",
    "Ġhomosexual",
    "Ġisol",
    "Ġaunt",
    "Ġhelping",
    "Ġstanwyck",
    "Ġhappiness",
    "Ġanticip",
    "Ġdrinking",
    "Ġarms",
    "Ġjulia",
    "lim",
    "sec",
    "Ġalb",
    "Ġsides",
    "ales",
    "oses",
    "ety",
    "Ġludicrous",
    "Ġafternoon",
    "Ġresist",
    "ented",
    "Ġnovels",
    "Ġcondition",
    "Ġdeliber",
    "hib",
    "Ġcave",
    "ari",
    "Ġnecessarily",
    "Ġcritical",
    "Ġtitles",
    "Ġgrin",
    "Ġspoken",
    "Ġratings",
    "Ġstrangely",
    "Ġpurely",
    "Ġshell",
    "Ġrenting",
    "Ġfabulous",
    "Ġmassac",
    "Ġcampy",
    "Ġraised",
    "Ġremotely",
    "Ġcharge",
    "Ġneedless",
    "Ġtab",
    "Ġbart",
    "Ġleague",
    "Ġbeck",
    "Ġgut",
    "noxious",
    "hold",
    "Ġweapons",
    "Ġguar",
    "Ġelizabeth",
    "ivan",
    "Ġclaire",
    "Ġreed",
    "Ġfocuses",
    "Ġcoinc",
    "Ġwarner",
    "pet",
    "ibilities",
    "Ġtouched",
    "Ġfond",
    "Ġstunt",
    "Ġdollar",
    "orig",
    "Ġswed",
    "Ġvacation",
    "Ġracist",
    "Ġalbe",
    "Ġalbeit",
    "Ġessential",
    "Ġmadness",
    "Ġbrooks",
    "icles",
    "lon",
    "face",
    "Ġparall",
    "Ġelev",
    "Ġlane",
    "Ġobnoxious",
    "Ġdoo",
    "even",
    "Ġfbi",
    "Ġdestroyed",
    "Ġvent",
    "udes",
    "Ġadvant",
    "Ġbreathtaking",
    "Ġconcert",
    "tending",
    "Ġcoh",
    "Ġlit",
    "Ġcauses",
    "Ġclar",
    "Ġatmospher",
    "inal",
    "Ġmiscast",
    "aughters",
    "Ġstomach",
    "Ġseeking",
    "ifies",
    "Ġlistening",
    "ule",
    "Ġtiming",
    "ipped",
    "Ġchoices",
    "Ġworkers",
    "lected",
    "Ġblat",
    "Ġstorytelling",
    "Ġpool",
    "Ġjoin",
    "Ġgrues",
    "Ġuninsp",
    "reek",
    "Ġminded",
    "Ġshower",
    "ira",
    "Ġdent",
    "isand",
    "Ġwolf",
    "Ġwesterns",
    "Ġbac",
    "Ġmansion",
    "Ġprincip",
    "Ġobser",
    "Ġenh",
    "orb",
    "Ġpad",
    "Ġpregnant",
    "oration",
    "Ġlocked",
    "Ġlarry",
    "Ġmindless",
    "Ġreward",
    "Ġsevent",
    "Ġwave",
    "Ġwarned",
    "Ġpicks",
    "beat",
    "Ġoveract",
    "stone",
    "Ġsons",
    "Ġq",
    "Ġsinister",
    "Ġobsession",
    "Ġspook",
    "Ġsevere",
    "enter",
    "Ġcarried",
    "uman",
    "Ġgand",
    "Ġtopic",
    "Ġusa",
    "Ġstylish",
    "Ġwicked",
    "Ġthunder",
    "Ġstereotypical",
    "gas",
    "Ġescapes",
    "Ġclock",
    "ilton",
    "Ġadop",
    "Ġlaid",
    "Ġsettings",
    "Ġgruesome",
    "Ġmanager",
    "Ġsucceeds",
    "Ġgab",
    "Ġsteps",
    "Ġsullivan",
    "Ġintentions",
    "Ġstreisand",
    "Ġbang",
    "Ġtempt",
    "Ġlazy",
    "actic",
    "umph",
    "Ġfunnier",
    "Ġcheer",
    "Ġbroke",
    "Ġrepet",
    "Ġclips",
    "Ġ2006",
    "Ġpupp",
    "Ã©e",
    "Ġcheese",
    "Ġindie",
    "Ġjewish",
    "Ġletter",
    "Ġfisher",
    "Ġbol",
    "mates",
    "enom",
    "Ġweight",
    "Ġattacks",
    "Ġwheel",
    "Ġinstall",
    "Ġchron",
    "Ġconfusion",
    "Ġbalance",
    "Ġpeck",
    "Ġderek",
    "hay",
    "Ġtransfer",
    "eston",
    "Ġproperly",
    "Ġpuzz",
    "Ġincor",
    "Ġpreview",
    "Ġdaughters",
    "Ġconspir",
    "Ġom",
    "adays",
    "Ġcel",
    "Ġadding",
    "Ġamazingly",
    "Ġpoignant",
    "hh",
    "Ġmentally",
    "Ġrelax",
    "Ġexpressions",
    "Ġassign",
    "Ġweapon",
    "Ġvoy",
    "Ġstro",
    "Ġsandler",
    "Ġira",
    "Ġtied",
    "Ġcaring",
    "Ġregarding",
    "Ġexists",
    "Ġchalleng",
    "Ġgoofy",
    "Ġral",
    "Ġaston",
    "Ġexistent",
    "Ġthrowing",
    "Ġwears",
    "Ġinternet",
    "Ġnowadays",
    "Ġcha",
    "Ġperfection",
    "Ġscreening",
    "Ġcarrying",
    "ores",
    "Ġreplaced",
    "Ġfallen",
    "mal",
    "tw",
    "Ġnavy",
    "case",
    "Ġsounded",
    "plic",
    "Ġscreenwriter",
    "Ġconscious",
    "Ġetern",
    "Ġtracy",
    "Ġphysically",
    "Ġinterpretation",
    "Ġfac",
    "bit",
    "Ġdaily",
    "Ġsham",
    "Ġjumps",
    "Ġtechnique",
    "Ġterrifying",
    "Ġcynical",
    "Ġburst",
    "Ġmyst",
    "Ġbald",
    "Ġneck",
    "Ġsmooth",
    "Ġeager",
    "Ġ2001",
    "Ġinfam",
    "Ġfortunately",
    "ieu",
    "ora",
    "ago",
    "Ġamongst",
    "Ġphenom",
    "Ġgraphics",
    "Ġinterviews",
    "Ġcolumbo",
    "Ġreference",
    "Ġhind",
    "Ġtriumph",
    "ught",
    "Ġironic",
    "Ġfrequently",
    "lection",
    "ustrated",
    "Ġconcentr",
    "Ġwreck",
    "Ġrum",
    "Ġbraz",
    "Ġdinner",
    "fall",
    "Ġunre",
    "Ġoddly",
    "order",
    "Ġhelen",
    "Ġdetermined",
    "tha",
    "Ġmichelle",
    "Ġsouthern",
    "Ġhills",
    "Ġblair",
    "Ġinspect",
    "Ġcrafted",
    "Ġslaughter",
    "Ġhick",
    "Ġmaker",
    "Ġecc",
    "Ġmaria",
    "Ġguessing",
    "Ġcontroversial",
    "Ġwwii",
    "rian",
    "Ġconnected",
    "Ġsentimental",
    "Ġkud",
    "Ġestablished",
    "Ġexplicit",
    "Ġnur",
    "Ġintensity",
    "Ġmiller",
    "Ġgill",
    "Ġinnocence",
    "Ġimmense",
    "Ġattacked",
    "oh",
    "Ġupper",
    "Ġjulie",
    "icing",
    "Ġthick",
    "Ġretarded",
    "semble",
    "Ġneighborhood",
    "Ġoccup",
    "oor",
    "plays",
    "Ġholiday",
    "Ġnoble",
    "Ġwidmark",
    "Ġeveryday",
    "Ġhorrific",
    "Ġweb",
    "Ġcarpenter",
    "Ġtrite",
    "ologist",
    "oyd",
    "Ġthousands",
    "Ġcube",
    "Ġreunion",
    "Ġbasis",
    "Ġcraft",
    "Ġdiam",
    "mate",
    "Ġnoneth",
    "Ġgripping",
    "Ġpacked",
    "apes",
    "Ġdawn",
    "aki",
    "Ġmatth",
    "Ġmonth",
    "Ġpresentation",
    "Ġpenn",
    "Ġchallenge",
    "Ġelder",
    "Ġadapted",
    "Ġwealthy",
    "Ġstranger",
    "tt",
    "Ġintroduction",
    "Ġhappily",
    "kh",
    "Ġralph",
    "Ġadequ",
    "Ġpride",
    "Ġdaw",
    "pire",
    "Ġhole",
    "Ġrey",
    "Ġiv",
    "Ġlesser",
    "Ġseag",
    "Ġpy",
    "Ġdign",
    "Ġbasket",
    "Ġeleg",
    "Ġalle",
    "Ġthief",
    "Ġembarrassed",
    "Ġsuther",
    "Ġsutherland",
    "Ġnonetheless",
    "Ġcatholic",
    "low",
    "Ġfay",
    "Ġmagaz",
    "Ġtraum",
    "Ġmarvelous",
    "Ġthrows",
    "Ġneighb",
    "Ġsidney",
    "asp",
    "Ġhud",
    "Ġhous",
    "Ġcases",
    "Ġadvantage",
    "Ġsuffered",
    "vira",
    "Ġmedical",
    "Ġire",
    "ission",
    "ements",
    "Ġpsychiat",
    "Ġspiel",
    "Ġbew",
    "Ġraise",
    "Ġprovoking",
    "Ġsket",
    "Ġfarm",
    "blance",
    "hero",
    "Ġtroubled",
    "Ġguilt",
    "Ġnine",
    "Ġblank",
    "iques",
    "Ġcomedian",
    "Ġcredible",
    "Ġfinan",
    "aker",
    "Ġmeaningful",
    "oke",
    "Ġenorm",
    "Ġrisk",
    "Ġdestruction",
    "Ġoil",
    "Ġspiritual",
    "Ġindia",
    "geon",
    "Ġcolorful",
    "Ġattempting",
    "Ġfatal",
    "Ġproof",
    "Ġmall",
    "Ġdisgu",
    "Ġflawed",
    "fits",
    "Ġsinc",
    "Ġenjoyment",
    "Ġangels",
    "vably",
    "Ġpros",
    "Ġinstinct",
    "Ġthrilling",
    "Ġinnov",
    "Ġkurt",
    "iveness",
    "Ġbrando",
    "Ġbetray",
    "Ġburton",
    "Ġstruggles",
    "ishes",
    "Ġdorothy",
    "Ġbette",
    "Ġstops",
    "Ġsplendid",
    "Ġitem",
    "Ġdisappear",
    "Ġpatient",
    "Ġcountries",
    "Ġnotable",
    "Ġserved",
    "Ġren",
    "Ġpam",
    "Ġpg",
    "rend",
    "Ġnol",
    "Ġmechan",
    "race",
    "Ġbust",
    "Ġburt",
    "ianc",
    "Ġmol",
    "Ġbroadcast",
    "Ġshy",
    "Ġassistant",
    "Ġriding",
    "Ġchaplin",
    "Ġwra",
    "ello",
    "Ġcrisis",
    "Ġol",
    "Ġbaker",
    "shi",
    "Ġfolk",
    "Ġsings",
    "Ġtrade",
    "ila",
    "Ġsuspects",
    "Ġhealth",
    "Ġsatan",
    "Ġcousin",
    "Ġashamed",
    "Ġsuggests",
    "Ġmillions",
    "Ġphill",
    "Ġconclud",
    "Ġpersonalities",
    "aves",
    "Ġcaric",
    "Ġatmospheric",
    "Ġfirm",
    "Ġexer",
    "Ġwishes",
    "Ġappearing",
    "Ġthread",
    "asant",
    "Ġprotagonists",
    "Ġracism",
    "Ġstanley",
    "Ġportrait",
    "Ġunforget",
    "Ġfid",
    "berl",
    "Ġwann",
    "Ġcag",
    "ils",
    "ller",
    "Ġviv",
    "Ġcroc",
    "Ġtongue",
    "Ġrefuses",
    "Ġelsewhere",
    "ception",
    "Ġfulf",
    "core",
    "Ġbridge",
    "Ġhunting",
    "Ġfranchise",
    "Ġglory",
    "nic",
    "ela",
    "Ġuncomfortable",
    "Ġannoun",
    "Ġbears",
    "Ġtense",
    "Ġdod",
    "Ġinfamous",
    "Ġthousand",
    "Ġta",
    "Ġforbid",
    "Ġpray",
    "Ġcagney",
    "Ġ1940",
    "Ġimaginative",
    "Ġtune",
    "Ġseparate",
    "Ġhors",
    "Ġglimp",
    "Ġglimpse",
    "Ġmes",
    "Ġminimal",
    "Ġstupidity",
    "Ġunbear",
    "Ġperpet",
    "Ġlegs",
    "Ġproph",
    "Ġholmes",
    "Ġreli",
    "Ġlying",
    "Ġcomfort",
    "Ġhorrend",
    "Ġwarn",
    "Ġattraction",
    "airs",
    "Ġstyl",
    "Ġbare",
    "Ġsincere",
    "Ġstretch",
    "Ġwasting",
    "Ġstiff",
    "Ġmassacre",
    "Ġattend",
    "Ġhudson",
    "Ġprojects",
    "Ġelvira",
    "Ġgreatly",
    "Ġwhereas",
    "Ġcham",
    "Ġraj",
    "Ġleonard",
    "Ġnov",
    "Ġexceptional",
    "Ġgarden",
    "Ġgriff",
    "Ġwilder",
    "Ġinj",
    "Ġsport",
    "Ġcorp",
    "Ġshorts",
    "Ġarrog",
    "rum",
    "ader",
    "Ġtrial",
    "Ġbusy",
    "Ġisra",
    "Ġtender",
    "Ġpoet",
    "Ġcance",
    "quis",
    "Ġric",
    "Ġgeor",
    "Ġbugs",
    "Ġhence",
    "Ġstall",
    "craft",
    "Ġsexuality",
    "Ġhoped",
    "Ġbollywood",
    "Ġgift",
    "Ġequal",
    "Ġhust",
    "Ġzone",
    "Ġintention",
    "appy",
    "Ġchew",
    "Ġramp",
    "Ġlaunch",
    "Ġhundreds",
    "Ġdislike",
    "Ġspielberg",
    "Ġabsorb",
    "Ġhiding",
    "ye",
    "Ġtang",
    "Ġjere",
    "Ġrender",
    "forms",
    "Ġcusack",
    "fia",
    "Ġprofession",
    "Ġthirty",
    "Ġfactory",
    "Ġswing",
    "Ġtam",
    "Ġ300",
    "attan",
    "Ġdiamond",
    "Ġtall",
    "Ġeerie",
    "Ġhyster",
    "Ġovercome",
    "Ġensemble",
    "Ġletting",
    "Ġdubbing",
    "Ġgad",
    "Ġjen",
    "Ġstunts",
    "Ġirony",
    "Ġeyed",
    "Ġconvict",
    "Ġcatherine",
    "Ġplastic",
    "Ġpir",
    "Ġinco",
    "Ġoblig",
    "Ġachieved",
    "Ġafore",
    "Ġtricks",
    "Ġourselves",
    "some",
    "Ġsecretary",
    "Ġperformers",
    "Ġappearances",
    "Ġseagal",
    "Ġdrives",
    "Ġecon",
    "Ġeconom",
    "Ġchoos",
    "xon",
    "Ġaired",
    "ties",
    "Ġincons",
    "Ġspots",
    "Ġdragged",
    "Ġisrael",
    "Ġmann",
    "Ġsplit",
    "Ġcraz",
    "Ġspending",
    "anity",
    "Ġinsist",
    "Ġweakness",
    "Ġhanks",
    "Ġcredibility",
    "Ġmatthau",
    "Ġshines",
    "Ġboll",
    "Ġrestaur",
    "Ġlovable",
    "Ġwanna",
    "Ġsally",
    "ification",
    "Ġnoted",
    "Ġdialogs",
    "Ġbot",
    "Ġconsists",
    "vol",
    "Ġindu",
    "Ġimportance",
    "Ġ45",
    "Ġoz",
    "Ġlessons",
    "Ġhooked",
    "Ġannoyed",
    "Ġactiv",
    "Ġcardboard",
    "Ġcarter",
    "Ġbeating",
    "Ġcup",
    "Ġripped",
    "Ġ24",
    "Ġoscars",
    "Ġsque",
    "Ġrepeat",
    "Ġinspector",
    "Ġcos",
    "Ġidiotic",
    "Ġnail",
    "Ġwalken",
    "iently",
    "Ġnel",
    "Ġcheek",
    "Ġspecific",
    "ros",
    "kick",
    "Ġpointed",
    "iffer",
    "Ġritter",
    "Ġguts",
    "Ġmarsh",
    "loff",
    "Ġdancer",
    "Ġjake",
    "Ġmedium",
    "lear",
    "Ġhitting",
    "Ġcox",
    "Ġsearching",
    "Ġunforgettable",
    "jud",
    "Ġchic",
    "Ġax",
    "Ġitaly",
    "Ġyu",
    "Ġdropped",
    "ipping",
    "Ġdepe",
    "Ġsuperhero",
    "Ġcitizen",
    "Ġterrit",
    "Ġknife",
    "oub",
    "Ġcompass",
    "Ġdare",
    "Ġmistaken",
    "och",
    "Ġrevolves",
    "Ġjerk",
    "Ġack",
    "cover",
    "Ġbrazil",
    "Ġmiike",
    "Ġlucas",
    "mentioned",
    "Ġtoile",
    "Ġpap",
    "uclear",
    "gia",
    "Ġheat",
    "Ġsentiment",
    "Ġbelongs",
    "Ġlarger",
    "Ġscratch",
    "Ġsolve",
    "Ġpoison",
    "Ġrushed",
    "Ġflu",
    "Ġelabor",
    "hill",
    "Ġscoo",
    "Ġboredom",
    "Ġbeer",
    "Ġredempt",
    "Ġultra",
    "Ġdisagree",
    "Ġcarrey",
    "Ġhorses",
    "Ġbride",
    "iments",
    "Ġgray",
    "Ġafford",
    "Ġarnold",
    "Ġmanh",
    "ament",
    "Ġinexplic",
    "Ġreplace",
    "Ġchecking",
    "Ġbriefly",
    "Ġrebel",
    "Ġopened",
    "Ġmonkey",
    "oms",
    "Ġearn",
    "Ġdenzel",
    "Ġpse",
    "Ġpseud",
    "Ġreynold",
    "Ġflav",
    "Ġvicious",
    "Ġexpensive",
    "Ġbasement",
    "Ġofficial",
    "Ġhipp",
    "Ġdevelops",
    "Ġlas",
    "Ġinher",
    "Ġdol",
    "Ġdise",
    "Ġthrillers",
    "Ġic",
    "ani",
    "Ġkrist",
    "alo",
    "Ġelvis",
    "Ġcompetent",
    "Ġclown",
    "Ġscripts",
    "Ġabc",
    "Ġenjoying",
    "Ġbirthday",
    "Ġshaw",
    "rict",
    "Ġkarloff",
    "Ġmam",
    "Ġthumbs",
    "idents",
    "Ġempath",
    "Ġtoss",
    "Ġsends",
    "Ġalike",
    "Ġawe",
    "ggie",
    "Ġreynolds",
    "Ġwake",
    "Ġjeremy",
    "Ġglover",
    "Ġcountless",
    "Ġconn",
    "Ġnose",
    "llo",
    "ographic",
    "Ġstood",
    "Ġkat",
    "Ġpersona",
    "Ġpatri",
    "Ġhamlet",
    "Ġrocks",
    "Ġgoal",
    "Ġrhy",
    "Ġduke",
    "Ġendearing",
    "istically",
    "Ġrevealing",
    "Ġspike",
    "Ġbattles",
    "Ġker",
    "Ġiii",
    "Ġplague",
    "Ġern",
    "Ġintr",
    "Ġeasier",
    "ses",
    "Ġmeg",
    "Ġhes",
    "Ġcanada",
    "Ġraped",
    "iable",
    "opath",
    "Ġstealing",
    "Ġluci",
    "Ġburning",
    "Ġfortune",
    "Ġgim",
    "Ġrig",
    "Ġtribute",
    "Ġsuperfic",
    "Ġshoots",
    "Ġdump",
    "ibl",
    "Ġscooby",
    "Ġwash",
    "Ġexch",
    "Ġabrupt",
    "Ġconcerns",
    "Ġhuh",
    "Ġclosely",
    "Ġplat",
    "Ġjoey",
    "Ġcharismatic",
    "Ġthrills",
    "Ġunh",
    "Ġreactions",
    "lls",
    "Ġja",
    "Ġnorman",
    "Ġjudg",
    "Ġcharisma",
    "Ġnuclear",
    "ointed",
    "Ġsalv",
    "Ġcruise",
    "Ġjesse",
    "Ġdetract",
    "Ġvoc",
    "Ġtechniques",
    "Ġdear",
    "Ġsexually",
    "iosity",
    "Ġcere",
    "Ġcurtis",
    "Ġambig",
    "Ġjosh",
    "Ġphenomen",
    "Ġexecutive",
    "Ġatlant",
    "Ġresur",
    "Ġum",
    "Ġ_",
    "usions",
    "Ġgodfather",
    "Ġkap",
    "Ġglob",
    "Ġyester",
    "Ġvirus",
    "Ġfrancisco",
    "Ġfitting",
    "Ġsophisticated",
    "Ġsurrounded",
    "Ġinevitable",
    "Ġstriking",
    "Ġworlds",
    "Ġcannibal",
    "Ġdrown",
    "Ġcovers",
    "Ġcomplaint",
    "onse",
    "Ġhandful",
    "Ġbritain",
    "Ġallowing",
    "mons",
    "Ġstumb",
    "Ġlur",
    "Ġattempted",
    "Ġhomeless",
    "Ġrevelation",
    "Ġupd",
    "Ġpoke",
    "Ġaccepted",
    "Ġeleph",
    "Ġkillings",
    "Ġcomics",
    "Ġchasing",
    "with",
    "Ġaz",
    "llie",
    "Ġ99",
    "Ġkane",
    "Ġloser",
    "Ġinfect",
    "Ġimit",
    "Ġbeings",
    "Ġmaniac",
    "Ġbackd",
    "Ġdur",
    "Ġlimit",
    "Ġmaintain",
    "Ġwaters",
    "ads",
    "Ġflynn",
    "Ġellen",
    "Ġmildred",
    "Ġcameos",
    "Ġsegments",
    "Ġtransp",
    "Ġsavage",
    "Ġexercise",
    "Ġhorrendous",
    "Ġmaid",
    "Ġnas",
    "Ġ2005",
    "Ġconserv",
    "Ġassociated",
    "Ġpi",
    "Ġrex",
    "Ġhelic",
    "Ġhelicop",
    "Ġsmoking",
    "Ġconven",
    "Ġhype",
    "Ġredemption",
    "Ġwiz",
    "Ġlibrary",
    "asingly",
    "Ġchases",
    "Ġeccent",
    "Ġlap",
    "Ġastaire",
    "Ġaustralia",
    "Ġbrosnan",
    "Ġtail",
    "Ġassassin",
    "Ġnelson",
    "Ġrepresents",
    "Ġlan",
    "Ġselfish",
    "Ġcarefully",
    "Ġsneak",
    "gger",
    "Ġquote",
    "Ġentry",
    "Ġspider",
    "Ġheston",
    "enstein",
    "Ġneil",
    "ifying",
    "Ġwinter",
    "Ġperry",
    "Ġstrang",
    "Ġgrows",
    "Ġwis",
    "Ġunintentionally",
    "thew",
    "Ġdawson",
    "Ġgil",
    "Ġrapid",
    "Ġdire",
    "Ġwack",
    "Ġbay",
    "Ġresour",
    "Ġquar",
    "kind",
    "Ġperforming",
    "Ġsidekick",
    "Ġsubsequent",
    "Ġkudos",
    "Ġadmittedly",
    "Ġfarce",
    "iders",
    "Ġnurse",
    "Ġinn",
    "Ġaforementioned",
    "Ġmerc",
    "Ġsuburb",
    "Ġconspiracy",
    "Ġdepression",
    "Ġuniform",
    "Ġinfer",
    "Ġsilence",
    "Ġingred",
    "Ġtrap",
    "Ġhomage",
    "Ġjealous",
    "Ġrein",
    "Ġrome",
    "Ġtea",
    "Ġinconsist",
    "Ġhire",
    "Ġstir",
    "Ġmatthew",
    "Ġmars",
    "Ġbullets",
    "Ġbreasts",
    "Ġcreation",
    "Ġposter",
    "Ġwannabe",
    "Ġhearts",
    "Ġvulner",
    "you",
    "Ġjar",
    "Ġdramas",
    "Ġlaurel",
    "Ġincreasingly",
    "Ġeccentric",
    "ishment",
    "Ġjun",
    "Ġgotta",
    "Ġadmire",
    "Ġgothic",
    "Ġcontinued",
    "Ġincompet",
    "Ġworthless",
    "Ġstrikes",
    "Ġbug",
    "tering",
    "Ġbullet",
    "Ġbleak",
    "Ġdigital",
    "Ġidentify",
    "Ġmorris",
    "Ġencounters",
    "ata",
    "Ġeditor",
    "Ġstronger",
    "Ġcarn",
    "Ġshout",
    "Ġfianc",
    "Ġtad",
    "cend",
    "Ġpushed",
    "Ġdoors",
    "Ġwebs",
    "Ġinvestigation",
    "Ġunion",
    "agin",
    "Ġwarrior",
    "Ġtermin",
    "Ġrelevant",
    "Ġglor",
    "Ġbrilliance",
    "Ġcul",
    "Ġfranco",
    "Ġstrike",
    "Ġcorn",
    "Ġnights",
    "Ġenters",
    "Ġginger",
    "Ġandrews",
    "Ġgadget",
    "Ġdentist",
    "Ġkorean",
    "Ġclint",
    "Ġglorious",
    "Ġgiall",
    "Ġbobby",
    "Ġsurrounding",
    "Ġscot",
    "Ġincoherent",
    "Ġarrested",
    "agan",
    "Ġbach",
    "Ġcoach",
    "Ġkitch",
    "Ġlisted",
    "Ġmotor",
    "Ġlloyd",
    "Ġuniversity",
    "Ġcrimes",
    "Ġrestra",
    "Ġfashioned",
    "Ġtool",
    "Ġbutch",
    "aze",
    "Ġjumping",
    "Ġessence",
    "gun",
    "rehens",
    "Ġinstantly",
    "Ġnoise",
    "Ġmiserably",
    "Ġjuven",
    "Ġpartly",
    "Ġdealt",
    "ito",
    "igan",
    "Ġkirk",
    "Ġtitled",
    "Ġpicking",
    "Ġuninspired",
    "Ġluckily",
    "ox",
    "Ġbakshi",
    "Ġexaggerated",
    "Ġtwin",
    "mit",
    "Ġchances",
    "Ġkaz",
    "Ġspread",
    "Ġdrunken",
    "Ġburied",
    "Ġstrictly",
    "Ġattached",
    "Ġshirt",
    "Ġticket",
    "Ġcraven",
    "Ġrequires",
    "Ġtodd",
    "Ġimportantly",
    "Ġspoiled",
    "Ġ2002",
    "Ġfired",
    "Ġeyre",
    "worth",
    "Ġmile",
    "Ġmitchell",
    "Ġlily",
    "Ġpor",
    "Ġeastwood",
    "Ġexhib",
    "Ġoccurs",
    "Ġian",
    "Ġoce",
    "Ġobt",
    "shine",
    "sa",
    "Ġcuriosity",
    "Ġmuse",
    "Ġ35",
    "Ġillustr",
    "Ġstated",
    "Ġalexander",
    "gate",
    "Ġclo",
    "Ġkay",
    "Ġberg",
    "Ġwoo",
    "Ġdistant",
    "Ġpover",
    "Ġpoverty",
    "Ġhighlights",
    "Ġfelix",
    "Ġego",
    "Ġoutrageous",
    "Ġexposed",
    "Ġtons",
    "Ġwalls",
    "Ġshah",
    "Ġbold",
    "tv",
    "Ġtoilet",
    "Ġcia",
    "Ġgradu",
    "Ġuseless",
    "Ġproviding",
    "Ġandre",
    "Ġpiano",
    "Ġrobber",
    "Ġselling",
    "Ġacceptable",
    "Ġnarrator",
    "Ġengine",
    "esis",
    "Ġambitious",
    "iors",
    "Ġcameron",
    "Ġeva",
    "Ġbone",
    "Ġaccused",
    "Ġpleasantly",
    "Ġthroat",
    "Ġroberts",
    "Ġdrags",
    "Ġsaves",
    "Ġdah",
    "Ġresponse",
    "urai",
    "Ġchildish",
    "Ġborrow",
    "Ġpresumably",
    "Ġstring",
    "Ġgrasp",
    "Ġslightest",
    "Ġjamie",
    "Ġeg",
    "Ġfailing",
    "Ġevident",
    "coming",
    "Ġdavies",
    "Ġaks",
    "ione",
    "Ġremaining",
    "iance",
    "rem",
    "Ġscientists",
    "ulf",
    "Ġchill",
    "Ġvig",
    "Ġoverlooked",
    "Ġartific",
    "Ġfrustrated",
    "Ġhorrid",
    "iation",
    "Ġcurse",
    "oops",
    "Ġtooth",
    "Ġstress",
    "Ġcried",
    "Ġhers",
    "unning",
    "unky",
    "Ġverho",
    "pow",
    "Ġforgive",
    "Ġsamurai",
    "Ġfunction",
    "Ġphant",
    "Ġresolution",
    "Ġestate",
    "Ġspa",
    "Ġchoreography",
    "Ġfears",
    "isation",
    "Ġcared",
    "Ġbible",
    "Ġingen",
    "rich",
    "Ġtemple",
    "Ġligh",
    "spo",
    "Ġinacc",
    "Ġroot",
    "ype",
    "Ġreluct",
    "Ġvoight",
    "va",
    "Ġtoys",
    "Ġinsert",
    "Ġindividuals",
    "Ġlabor",
    "Ġjet",
    "Ġprecise",
    "Ġwol",
    "Ġtypically",
    "Ġimagined",
    "Ġboot",
    "Ġclues",
    "Ġinsulting",
    "Ġaccomplished",
    "Ġprejud",
    "Ġrealise",
    "works",
    "vier",
    "orthy",
    "Ġvideos",
    "Ġdave",
    "Ġrever",
    "Ġpeak",
    "Ġchest",
    "Ġkicks",
    "Ġflawless",
    "Ġ21",
    "Ġranks",
    "Ġmate",
    "Ġhan",
    "aude",
    "Ġdanes",
    "Ġverhoeven",
    "Ġhank",
    "Ġorch",
    "ped",
    "Ġundoub",
    "Ġromero",
    "bal",
    "Ġexplod",
    "Ġregardless",
    "icient",
    "aid",
    "Ġreasonable",
    "Ġreb",
    "Ġapes",
    "Ġreturned",
    "itution",
    "Ġthreatening",
    "end",
    "Ġoverwhelming",
    "Ġcompetition",
    "Ġgriffith",
    "Ġpolitic",
    "Ġgenres",
    "Ġsov",
    "Ġinspiring",
    "Ġstruck",
    "Ġspooky",
    "Ġspirited",
    "Ġsubplot",
    "Ġrive",
    "Ġkidnapped",
    "Ġape",
    "Ġchain",
    "Ġelectric",
    "ructed",
    "Ġattracted",
    "Ġabys",
    "Ġilleg",
    "Ġslick",
    "Ġcompassion",
    "Ġbin",
    "Ġdelicious",
    "Ġsloppy",
    "Ġsacrifice",
    "Ġdrivel",
    "Ġlifesty",
    "Ġakshay",
    "Ġopposed",
    "quel",
    "original",
    "Ġcrook",
    "Ġaimed",
    "Ġliberal",
    "Ġassault",
    "Ġtame",
    "rase",
    "Ġalf",
    "Ġdum",
    "Ġnazis",
    "Ġarc",
    "Ġmotivation",
    "ashes",
    "Ġmessages",
    "Ġcorpse",
    "Ġmafia",
    "Ġmarks",
    "Ġwonders",
    "Ġgrab",
    "Ġcraig",
    "Ġhamilton",
    "Ġannie",
    "Ġfancy",
    "Ġdonna",
    "Ġjuvenile",
    "Ġfifteen",
    "isha",
    "Ġmeaningless",
    "Ġoutl",
    "Ġworker",
    "Ġwondered",
    "Ġ2004",
    "Ġlogical",
    "lle",
    "Ġfx",
    "Ġcreators",
    "Ġslave",
    "Ġlacked",
    "ika",
    "Ġbelieving",
    "Ġreleas",
    "Ġshoes",
    "oric",
    "Ġconvent",
    "Ġmuslim",
    "atched",
    "Ġterritory",
    "Ġnewcom",
    "Ġsize",
    "rol",
    "Ġdiscussion",
    "Ġblake",
    "Ġdecl",
    "Ġcameras",
    "Ġdrum",
    "Ġrelent",
    "Ġreasonably",
    "Ġnewsp",
    "Ġshadows",
    "Ġimproved",
    "of",
    "Ġunple",
    "fting",
    "Ġslim",
    "Ġstole",
    "Ġturner",
    "Ġhomer",
    "Ġareas",
    "Ġfrag",
    "Ġchor",
    "keys",
    "Ġsuperficial",
    "Ġbite",
    "Ġpulp",
    "rd",
    "onym",
    "Ġod",
    "Ġbucks",
    "Ġcharacterization",
    "gir",
    "Ġmast",
    "Ġpink",
    "Ġmun",
    "Ġtemper",
    "Ġgrandmother",
    "Ġrestaurant",
    "Ġgradually",
    "cula",
    "Ġflorida",
    "ded",
    "Ġsopr",
    "Ġyesterday",
    "Ġpoll",
    "Ġelderly",
    "inn",
    "Ġruthless",
    "Ġrabb",
    "Ġsettle",
    "gent",
    "pses",
    "Ġmelodramatic",
    "Ġsymbolism",
    "erved",
    "Ġanal",
    "Ġrepetitive",
    "Ġadequate",
    "Ġstyles",
    "Ġanch",
    "Ġbefriend",
    "Ġtremendous",
    "Ġgw",
    "ration",
    "Ġglenn",
    "Ġdramat",
    "Ġmargaret",
    "fun",
    "erty",
    "hand",
    "Ġironically",
    "ume",
    "Ġjeffrey",
    "Ġkr",
    "heart",
    "Ġphotographed",
    "Ġyellow",
    "Ġparam",
    "Ġ2003",
    "weight",
    "po",
    "world",
    "rial",
    "pin",
    "Ġcontrad",
    "Ġrobots",
    "Ġpleased",
    "Ġappalling",
    "Ġachievement",
    "Ġpretend",
    "len",
    "Ġworried",
    "inda",
    "eryl",
    "arts",
    "Ġstaff",
    "Ġmenacing",
    "Ġharr",
    "ingu",
    "Ġcaptivating",
    "iously",
    "Ġhatred",
    "Ġkitchen",
    "uristic",
    "Ġguide",
    "Ġreturning",
    "Ġ2007",
    "Ġdocumentaries",
    "Ġberlin",
    "Ġrepeatedly",
    "Ġpopc",
    "Ġinaccur",
    "Ġtimothy",
    "Ġignored",
    "Ġbless",
    "Ġjazz",
    "Ġfalk",
    "Ġconsequences",
    "Ġmisf",
    "Ġdancers",
    "Ġsunshine",
    "Ġnotes",
    "Ġreduced",
    "Ġsteam",
    "Ġcarrie",
    "Ġblob",
    "Ġelaborate",
    "Ġaltog",
    "Ġaltogether",
    "Ġsail",
    "Ġinhabit",
    "Ġoutcome",
    "Ġmupp",
    "Ġconceived",
    "Ġseed",
    "Ġgyp",
    "bird",
    "Ġtalked",
    "Ġenjoys",
    "Ġforbidden",
    "Ġfist",
    "Ġtomato",
    "Ġtimeless",
    "Ġconvol",
    "Ġimmig",
    "Ġsecrets",
    "Ġrelies",
    "Ġunbearable",
    "Ġundoubted",
    "Ġprostitute",
    "Ġshine",
    "Ġdirectorial",
    "erto",
    "Ġsnake",
    "ona",
    "Ġbuddies",
    "Ġsuits",
    "spoil",
    "Ġrequire",
    "Ġproceedings",
    "Ġastonishing",
    "Ġpopcorn",
    "Ġhug",
    "athers",
    "Ġswedish",
    "udge",
    "Ġwatches",
    "Ġplanning",
    "Ġcig",
    "Ġmayor",
    "istan",
    "Ġthugs",
    "Ġouter",
    "Ġpushing",
    "Ġadvance",
    "Ġgimm",
    "Ġgimmick",
    "Ġcoherent",
    "Ġmanhattan",
    "Ġexter",
    "Ġargument",
    "Ġaffected",
    "Ġsept",
    "Ġtie",
    "Ġbedroom",
    "Ġshortly",
    "Ġoverdone",
    "Ġhog",
    "Ġdish",
    "vest",
    "anny",
    "Ġshining",
    "Ġdy",
    "Ġvenge",
    "Ġrend",
    "Ġexplosions",
    "Ġpear",
    "Ġbrady",
    "Ġlift",
    "itudes",
    "Ġnerv",
    "Ġbrun",
    "Ġdict",
    "Ġkum",
    "Ġpale",
    "Ġmovements",
    "Ġcringe",
    "Ġpsychiatrist",
    "Ġprede",
    "Ġheroic",
    "Ġphotographer",
    "Ġmotives",
    "Ġcrush",
    "Ġboom",
    "Ġdevast",
    "Ġcommercials",
    "aver",
    "Ġunpleasant",
    "Ġnotably",
    "Ġwalker",
    "Ġpunk",
    "Ġstaying",
    "Ġlen",
    "Ġtiger",
    "Ġish",
    "Ġdignity",
    "Ġsticks",
    "Ġcontained",
    "Ġsouls",
    "Ġlund",
    "aky",
    "Ġsubjects",
    "Ġreached",
    "Ġmagazine",
    "Ġacclaim",
    "Ġloosely",
    "Ġdarker",
    "ola",
    "Ġconve",
    "bie",
    "Ġdoomed",
    "Ġwarren",
    "Ġunbelievably",
    "inder",
    "Ġchains",
    "Ġhmm",
    "Ġhorrors",
    "Ġglobal",
    "Ġstoo",
    "Ġinstallment",
    "Ġkin",
    "urance",
    "rics",
    "Ġexploit",
    "Ġencoura",
    "Ġcentered",
    "asion",
    "wow",
    "Ġpredecess",
    "Ġmisses",
    "Ġbuilds",
    "Ġabilities",
    "Ġcurrently",
    "Ġmarch",
    "Ġempire",
    "Ġreel",
    "Ġlatin",
    "ril",
    "Ġdiscovery",
    "Ġnause",
    "Ġbeaten",
    "atisf",
    "nery",
    "Ġexplore",
    "Ġsmoke",
    "Ġthrew",
    "ilted",
    "Ġrespond",
    "ortion",
    "Ġboxing",
    "Ġmetaphor",
    "othing",
    "Ġsg",
    "Ġrambo",
    "Ġskull",
    "Ġgroups",
    "ogical",
    "Ġhysterical",
    "Ġintrigued",
    "Ġexisted",
    "Ġrene",
    "Ġbrooklyn",
    "Ġodds",
    "Ġdistance",
    "Ġoffering",
    "Ġburned",
    "Ġdracula",
    "isms",
    "Ġsplatter",
    "Ġscripted",
    "Ġcombat",
    "Ġfever",
    "Ġaffection",
    "Ġunsett",
    "Ġstaged",
    "Ġridiculously",
    "Ġtowns",
    "Ġenchant",
    "olph",
    "Ġduo",
    "Ġprompt",
    "Ġsaf",
    "Ġobscure",
    "Ġease",
    "Ġpsychotic",
    "oe",
    "Ġawa",
    "Ġdifferences",
    "Ġbeats",
    "Ġpainted",
    "Ġsarc",
    "Ġfluff",
    "mann",
    "Ġlandscape",
    "estic",
    "Ġprecious",
    "writ",
    "Ġfonda",
    "Ġjuliet",
    "Ġexplaining",
    "Ġdetailed",
    "Ġdrawing",
    "Ġresort",
    "Ġdisease",
    "lan",
    "Ġgenerous",
    "Ġcandid",
    "uing",
    "Ġcoast",
    "roy",
    "Ġmorality",
    "Ġgoldberg",
    "lk",
    "Ġbirds",
    "Ġnicholson",
    "Ġcuba",
    "Ġconcer",
    "Ġconcerning",
    "Ġaltman",
    "Ġwarming",
    "Ġcrocod",
    "Ġengaged",
    "Ġrage",
    "Ġkapoor",
    "Ġmummy",
    "Ġawake",
    "Ġchristy",
    "Ġkaren",
    "Ġpopulation",
    "Ġmurderous",
    "place",
    "Ġcellul",
    "Ġacknow",
    "Ġtank",
    "otte",
    "Ġblend",
    "Ġtires",
    "Ġfuneral",
    "Ġfing",
    "Ġwhale",
    "Ġcompanion",
    "Ġidiots",
    "Ġorders",
    "Ġdeliberately",
    "Ġsme",
    "Ġdefeat",
    "arm",
    "Ġcats",
    "ffee",
    "Ġconqu",
    "Ġclimb",
    "Ġaudio",
    "Ġdynamic",
    "gren",
    "Ġexotic",
    "aurs",
    "Ġkenneth",
    "Ġdivorce",
    "Ġafterwards",
    "Ġcirc",
    "Ġvall",
    "Ġblows",
    "Ġprops",
    "Ġgreek",
    "lag",
    "Ġcunning",
    "Ġshirley",
    "Ġargue",
    "breaking",
    "Ġimplausible",
    "Ġbathroom",
    "Ġtunes",
    "Ġwealth",
    "____",
    "Ġoptim",
    "Ġfulci",
    "Ġbergman",
    "Ġmodesty",
    "Ġconvoluted",
    "Ġmesmer",
    "Ġmysteries",
    "Ġgiallo",
    "Ġhouses",
    "Ġundoubtedly",
    "Ġque",
    "Ġglamor",
    "Ġharder",
    "Ġlawrence",
    "Ġswear",
    "Ġextended",
    "Ġrural",
    "Ġecho",
    "Ġaggress",
    "Ġdalton",
    "Ġpseudo",
    "Ġleo",
    "Ġhul",
    "Ġresemblance",
    "Ġresembles",
    "Ġneo",
    "Ġpays",
    "Ġocean",
    "Ġmountains",
    "elve",
    "Ġwinters",
    "Ġrecognized",
    "Ġmaggie",
    "owed",
    "Ġroth",
    "Ġdinosaurs",
    "Ġcomfortable",
    "Ġobserv",
    "Ġreport",
    "Ġdating",
    "Ġreceive",
    "ees",
    "Ġtommy",
    "des",
    "Ġreh",
    "Ġemily",
    "atingly",
    "Ġscientific",
    "Ġhollow",
    "Ġmiy",
    "Ġrif",
    "Ġdisplays",
    "annon",
    "Ġexplosion",
    "Ġath",
    "Ġlabel",
    "Ġcelluloid",
    "Ġfog",
    "tte",
    "Ġabsence",
    "Ġbent",
    "Ġhardcore",
    "Ġincest",
    "Ġfundam",
    "Ġcharlotte",
    "Ġcatches",
    "Ġdozens",
    "cingly",
    "Ġdolls",
    "Ġnearby",
    "Ġadoles",
    "Ġfurthermore",
    "Ġinterrupt",
    "Ġsuited",
    "Ġfoul",
    "Ġescaped",
    "Ġwebsite",
    "Ġsynops",
    "rehensible",
    "Ġsmaller",
    "Ġpalma",
    "Ġpulling",
    "Ġsoviet",
    "Ġamuse",
    "Ġpossessed",
    "although",
    "Ġuneven",
    "Ġfinger",
    "Ġvulgar",
    "Ġoccurred",
    "isc",
    "Ġremoved",
    "Ġindians",
    "Ġ1996",
    "Ġendings",
    "Ġloads",
    "Ġremarkably",
    "Ġresurrect",
    "Ġclum",
    "Ġclumsy",
    "ptic",
    "Ġmickey",
    "Ġtranslation",
    "Ġduck",
    "Ġrecover",
    "Ġsuperbly",
    "Ġedie",
    "Ġabysmal",
    "Ġpanic",
    "Ġfetched",
    "Ġinfluenced",
    "assy",
    "Ġconsistently",
    "Ġdisplayed",
    "Ã¨",
    "ulate",
    "Ġbron",
    "Ġmixt",
    "itely",
    "Ġexplored",
    "Ġmerit",
    "Ġpersu",
    "Ġassem",
    "verted",
    "Ġts",
    "Ġsales",
    "Ġrevolutionary",
    "sky",
    "Ġcommunist",
    "Ġcens",
    "Ġcoffee",
    "Ġties",
    "Ġrocket",
    "Ġseventies",
    "Ġclasses",
    "Ġwont",
    "Ġjewel",
    "Ġdraws",
    "Ġsocc",
    "Ġforty",
    "Ġintrigue",
    "Ġkol",
    "Ġdistracting",
    "Ġhumili",
    "Ġimper",
    "Ġkeen",
    "Ġparallel",
    "Ġinnovative",
    "Ġwallace",
    "Ġmail",
    "Ġtopless",
    "Ġgor",
    "Ġsett",
    "Ġtortured",
    "Ġdevoted",
    "Ġwag",
    "aux",
    "Ġross",
    "Ġconventional",
    "Ġstack",
    "Ġunwatch",
    "inent",
    "Ġmisunder",
    "Ġroyal",
    "Ġsatir",
    "Ġdesigns",
    "Ġmadonna",
    "agues",
    "yon",
    "Ġscreams",
    "Ġarist",
    "Ġmixture",
    "Ġlun",
    "Ġerrors",
    "Ġsadness",
    "rep",
    "Ġcareers",
    "ounding",
    "Ġgarbo",
    "Ġparad",
    "Ġfren",
    "Ġbrains",
    "Ġkub",
    "Ġalexand",
    "Ġtwelve",
    "Ġpossibility",
    "Ġsoccer",
    "Ġoverrated",
    "Ġillogical",
    "Ġyawn",
    "Ġgigg",
    "Ġwt",
    "Ġgoodness",
    "Ġinvolvement",
    "Ġiraq",
    "Ġwrestling",
    "Ġdixon",
    "idy",
    "Ġunintentional",
    "Ġstreep",
    "Ġrepresented",
    "Ġkennedy",
    "Ġsedu",
    "Ġstinker",
    "zilla",
    "ayson",
    "Ġrook",
    "Ġpeters",
    "Ġlemmon",
    "Ġsolely",
    "Ġdutch",
    "Ġspr",
    "Ġdimension",
    "Ġrecorded",
    "Ġought",
    "Ġdeveloping",
    "Ġbenefit",
    "Ġchoreograph",
    "Ġmelting",
    "Ġdevoid",
    "Ġdemands",
    "Ġflop",
    "Ġenterp",
    "Ġoffended",
    "Ġjournalist",
    "Ġcloset",
    "Ġingredients",
    "Ġcorruption",
    "Ġrotten",
    "Ġpasses",
    "Ġgrandfather",
    "Ġ191",
    "Ġtransformation",
    "Ġlaws",
    "ocative",
    "Ġblast",
    "yes",
    "ctions",
    "Ġcomposed",
    "Ġofficers",
    "Ġapolog",
    "Ġkidding",
    "Ġconversations",
    "Ġliking",
    "iere",
    "adle",
    "Ġantics",
    "Ġlips",
    "lers",
    "Ġsno",
    "Ġrang",
    "Ġaug",
    "awa",
    "rah",
    "Ġexcru",
    "Ġexcruci",
    "Ġenem",
    "Ġrubber",
    "Ġeaster",
    "Ġtimon",
    "Ġsore",
    "Ġshan",
    "Ġdefend",
    "Ġinventive",
    "Ġnervous",
    "Ġdances",
    "list",
    "Ġoffs",
    "Ġsuspicious",
    "Ġedgar",
    "Ġproducing",
    "Ġspecifically",
    "Ġrelation",
    "Ġhonesty",
    "Ġbarg",
    "Ġstell",
    "Ġterry",
    "ications",
    "approp",
    "appropri",
    "Ġclimactic",
    "Ġterrorist",
    "Ġfuturistic",
    "Ġnostalgic",
    "pel",
    "Ġcomparing",
    "Ġaids",
    "Ġsigns",
    "Ġrecon",
    "Ġec",
    "Ġsynopsis",
    "Ġjudy",
    "Ġnun",
    "Ġlundgren",
    "Ġgrinch",
    "Ġhelicopter",
    "Ġweakest",
    "Ġauthority",
    "gra",
    "mi",
    "ionship",
    "Ġlamp",
    "Ġpretending",
    "Ġegg",
    "Ġrag",
    "Ġantw",
    "ko",
    "Ġfighter",
    "Ġnotion",
    "Ġenemies",
    "ularly",
    "Ġinvestigate",
    "Ġpassionate",
    "Ġhideous",
    "Ġicon",
    "Ġchaos",
    "Ġcustom",
    "Ġwells",
    "Ġspare",
    "Ġvib",
    "Ġmasters",
    "Ġprimary",
    "Ġdisturbed",
    "Ġinteraction",
    "Ġcu",
    "ids",
    "Ġkhan",
    "Ġorph",
    "Ġlimits",
    "Ġsurvivors",
    "Ġemper",
    "Ġemperor",
    "Ġlifestyle",
    "Ġsucceeded",
    "Ġegy",
    "Ġegypt",
    "Ġfocusing",
    "Ġpalt",
    "Ġelli",
    "aneously",
    "Ġwinds",
    "vity",
    "Ġsurviving",
    "Ġsurvival",
    "Ġkubrick",
    "Ġblunt",
    "Ġserge",
    "book",
    "Ġdialogues",
    "Ġkent",
    "Ġconservative",
    "Ġhob",
    "Ġdickens",
    "Ġfinancial",
    "Ġdownhill",
    "Ġprol",
    "Ġdescribes",
    "Ġjol",
    "Ġ1972",
    "Ġsimplistic",
    "Ġtraveling",
    "Ġformulaic",
    "Ġhyper",
    "Ġhints",
    "Ġdecisions",
    "Ġarrive",
    "Ġholy",
    "Ġcalm",
    "hr",
    "Ġesp",
    "Ġalert",
    "Ġunfair",
    "Ġnightma",
    "Ġnightmares",
    "Ġanyways",
    "Ġorchest",
    "Ġrooney",
    "Ġollie",
    "Ġunsettling",
    "Ġhopeless",
    "Ġagents",
    "abh",
    "Ġmeasure",
    "Ġwhim",
    "Ġaging",
    "iner",
    "Ġthru",
    "icity",
    "Ġcontrary",
    "Ġgarner",
    "Ġrepub",
    "Ġcd",
    "Ġtiresome",
    "Ġpic",
    "Ġdismiss",
    "Ġblowing",
    "Ġdomino",
    "Ġphilosophy",
    "jointed",
    "Ġclay",
    "Ġpromised",
    "Ġimperson",
    "wright",
    "Ġsteel",
    "Ġadul",
    "Ġrebell",
    "Ġinferior",
    "Ġdestiny",
    "Ġhates",
    "Ġurge",
    "can",
    "Ġcary",
    "Ġuser",
    "Ġdaddy",
    "Ġchorus",
    "Ġclothing",
    "Ġclaus",
    "Ġglo",
    "Ġmuseum",
    "Ġamy",
    "Ġolivier",
    "Ġdespair",
    "ogue",
    "erk",
    "han",
    "Ġunderstandable",
    "Ġcoward",
    "lands",
    "Ġmarty",
    "Ġflag",
    "ieces",
    "Ġspirits",
    "Ġpacif",
    "Ġsenseless",
    "Ġrepuls",
    "Ġdirt",
    "Ġster",
    "Ġtrailers",
    "Ġdais",
    "igo",
    "Ġny",
    "Ġgodzilla",
    "Ġapoc",
    "Ġjenny",
    "Ġmontana",
    "Ġscarlet",
    "Ġhorrifying",
    "uable",
    "Ġlyrics",
    "Ġbeneath",
    "Ġcollabor",
    "Ġpossibilities",
    "Ġtrees",
    "Ġsatisfact",
    "esth",
    "Ġgundam",
    "nel",
    "Ġplanned",
    "Ġneur",
    "Ġinappropri",
    "Ġtracks",
    "Ġamid",
    "Ġconvincingly",
    "Ġwax",
    "Ġdisjointed",
    "Ġdedicated",
    "illed",
    "Ġtreats",
    "emark",
    "Ġsolo",
    "Ġpurple",
    "ancing",
    "Ġangeles",
    "Ġshake",
    "Ġartificial",
    "Ġcommented",
    "Ġdazz",
    "Ġcliche",
    "Ġhousew",
    "Ġliz",
    "Ġletters",
    "Ġedit",
    "Ġjustify",
    "Ġcampbell",
    "Ġprimarily",
    "Ġmachines",
    "Ġwives",
    "Ġtechnic",
    "Ġsaga",
    "Ġmontage",
    "jack",
    "Ġmish",
    "Ġstabb",
    "Ġwrites",
    "Ġriveting",
    "itar",
    "aled",
    "Ġinstant",
    "Ġaven",
    "Ġsecretly",
    "Ġgeneric",
    "chi",
    "Ġatlantis",
    "Ġmenace",
    "Ġcleverly",
    "Ġimmort",
    "ni",
    "Ġfaster",
    "Ġ1983",
    "Ġflam",
    "Ġstiller",
    "Ġkl",
    "Ġjulian",
    "Ġcommend",
    "Ġillness",
    "Ġsimpson",
    "Ġunwatchable",
    "Ġperformer",
    "Ġhighest",
    "Ġpattern",
    "Ġgest",
    "Ġjudging",
    "Ġmacy",
    "Ġstellar",
    "Ġrepublic",
    "Ġtrashy",
    "Ġfrustration",
    "Ġbackdrop",
    "Ġarab",
    "Ġaddress",
    "Ġfooled",
    "iar",
    "Ġjonathan",
    "Ġbeatty",
    "Ġdamage",
    "oma",
    "Ġtrademark",
    "Ġpatric",
    "Ġmodels",
    "Ġsandra",
    "Ġairpl",
    "Ġlasted",
    "oured",
    "writers",
    "Ġterrorists",
    "Ġstard",
    "Ġcinematographer",
    "Ġsimilarities",
    "Ġpolitically",
    "Ġunfolds",
    "Ġsue",
    "Ġnomination",
    "Ġpoetry",
    "Ġreaches",
    "riel",
    "Ġnap",
    "Ġunm",
    "Ġenormous",
    "Ġconfident",
    "Ġavoided",
    "Ġple",
    "Ġblues",
    "Ġbrav",
    "Ġnem",
    "Ġimpe",
    "hem",
    "Ġfrankie",
    "seen",
    "Ġbutton",
    "Ġwhoop",
    "Ġneph",
    "orney",
    "Ġhbo",
    "Ġcombine",
    "Ġconsiderable",
    "Ġling",
    "Ġwip",
    "Ġsadistic",
    "Ġrecru",
    "Ġadvanced",
    "Ġjunior",
    "Ġgrotes",
    "Ġalcoholic",
    "Ġsirk",
    "Ġblade",
    "Ġglim",
    "Ġdrops",
    "Ġsnl",
    "Ġthoughtful",
    "Ġconsistent",
    "Ġeighties",
    "Ġchapter",
    "Ġlena",
    "Ġsecondly",
    "Ġcure",
    "Ġdesperation",
    "Ġspecies",
    "Ġlens",
    "Ġasp",
    "Ġ1999",
    "Ġorson",
    "Ġnewspaper",
    "inity",
    "ressive",
    "Ġcountryside",
    "Ġblackm",
    "Ġphotos",
    "Ġcheating",
    "star",
    "Ġmiserable",
    "Ġcontempl",
    "Ġtravels",
    "Ġlean",
    "Ġyelling",
    "umble",
    "Ġmode",
    "eur",
    "Ġruby",
    "Ġunrel",
    "lines",
    "Ġpokemon",
    "Ġblur",
    "Ġdaring",
    "Ġblew",
    "Ġindustrial",
    "Ġmiracle",
    "Ġshelf",
    "Ġprize",
    "Ġfoolish",
    "Ġnephew",
    "Ġew",
    "Ġimmensely",
    "ioni",
    "Ġamanda",
    "lma",
    "Ġshelley",
    "aped",
    "Ġcrocodile",
    "Ġendure",
    "Ġbuzz",
    "azaki",
    "acies",
    "Ġguessed",
    "Ġadams",
    "Ġholly",
    "Ġscores",
    "Ġcolonel",
    "atures",
    "Ġillegal",
    "Ġawak",
    "Ġbonus",
    "Ġwet",
    "Ġpartners",
    "Ġhurts",
    "Ġstinks",
    "Ġchoreographed",
    "Ġbanned",
    "Ġrooms",
    "Ġdill",
    "Ġkicking",
    "Ġharvey",
    "Ġexcl",
    "Ġcompens",
    "Ġhalluc",
    "Ġcake",
    "Ġmatches",
    "idal",
    "Ġisolated",
    "Ġhav",
    "Ġnamely",
    "donald",
    "Ġelegant",
    "Ġsung",
    "Ġhousehold",
    "Ġsellers",
    "Ġeli",
    "Ġnuts",
    "Ġracial",
    "Ġboun",
    "Ġothello",
    "Ġbuffs",
    "Ġrave",
    "Ġswimming",
    "igner",
    "Ġcelebrity",
    "Ġvic",
    "Ġbehave",
    "Ġmonkeys",
    "oster",
    "Ġmarion",
    "Ġkingdom",
    "Ġspaces",
    "fight",
    "onscious",
    "Ġattorney",
    "Ġintroduces",
    "Ġears",
    "Ġstallone",
    "Ġgreedy",
    "Ġdiane",
    "Ġhartley",
    "Ġ1968",
    "Ġsurpass",
    "Ġfantas",
    "Ġponder",
    "Ġdisappeared",
    "Ġgerard",
    "Ġwend",
    "Ġlively",
    "Ġcapturing",
    "ulated",
    "Ġarguably",
    "Ġagrees",
    "Ġscheme",
    "rophob",
    "Ġemphasis",
    "Ġrelatives",
    "Ġps",
    "Ġforms",
    "eter",
    "Ġdee",
    "Ġsuspend",
    "Ġmario",
    "Ġsentence",
    "Ġcircle",
    "Ġfloating",
    "Ġvice",
    "icker",
    "Ġmotivations",
    "Ġcybor",
    "omnia",
    "Ġgym",
    "Ġpamela",
    "Ã¡",
    "Ġgandhi",
    "Ġcorb",
    "Ġethnic",
    "Ġapt",
    "imer",
    "Ġporno",
    "Ġexploration",
    "Ġbuildings",
    "pled",
    "Ġbabe",
    "Ġdys",
    "Ġphoto",
    "Ġupst",
    "Ġopinions",
    "Ġphilosophical",
    "Ġscat",
    "Ġrocky",
    "Ġcheated",
    "Ġballet",
    "Ġelimin",
    "inov",
    "Ġdolph",
    "Ġdinosaur",
    "Ġbleed",
    "saw",
    "Ġtrained",
    "entine",
    "ocr",
    "Ġcausing",
    "Ġchristians",
    "Ġconstruction",
    "Ġfrequent",
    "Ġbark",
    "Ġgrind",
    "Ġquant",
    "Ġapplaud",
    "oen",
    "Ġunderstated",
    "Ġausten",
    "Ġdisli",
    "Ġlor",
    "Ġadorable",
    "acle",
    "Ġalongside",
    "Ġgloss",
    "Ġcarr",
    "Ġzize",
    "Ġzizek",
    "Ġgrie",
    "Ġsubtlety",
    "Ġchicago",
    "Ġmyers",
    "Ġamit",
    "Ġbackgrounds",
    "Ġlandscapes",
    "Ġresident",
    "orc",
    "arthur",
    "Ġdescent",
    "Ġundert",
    "Ġgrotesque",
    "Ġclaust",
    "Ġtransition",
    "Ġdirects",
    "Ġclassical",
    "Ġlav",
    "ivable",
    "Ġrealizing",
    "Ġsurvived",
    "Ġdelivering",
    "Ġquotes",
    "ami",
    "Ġsatisfied",
    "Ġversus",
    "Ġbs",
    "Ġmisle",
    "Ġchess",
    "Ġpoe",
    "izable",
    "Ġdemo",
    "Ġeaten",
    "Ġsadd",
    "Ġwig",
    "Ġjac",
    "Ġmistress",
    "Ġpurchased",
    "Ġenterprise",
    "Ġexped",
    "Ġupli",
    "Ġunsatisf",
    "Ġcg",
    "Ġconfidence",
    "Ġstilted",
    "Ġhopper",
    "uddled",
    "Ġgender",
    "Ġcarell",
    "Ġwore",
    "Ġlately",
    "Ġust",
    "ij",
    "ivalent",
    "Ġchased",
    "Ġbever",
    "bod",
    "Ġjod",
    "Ġcarrad",
    "Ġwizard",
    "Ġdepicts",
    "iably",
    "Ġcreator",
    "Ġmclag",
    "Ġlackl",
    "Ġdepressed",
    "ele",
    "Ġhelpless",
    "Ġtrio",
    "anski",
    "Ġuwe",
    "Ġjustin",
    "Ġmiyazaki",
    "Ġoct",
    "Ġgraham",
    "Ġearned",
    "Ġparano",
    "Ġdivers",
    "Ġcrawford",
    "Ġwidely",
    "Ġattitudes",
    "Ġarrival",
    "Ġclaustrophob",
    "Ġmund",
    "Ġscor",
    "Ġclaimed",
    "antino",
    "Ġpractice",
    "Ġdestroying",
    "Ġprincipal",
    "Ġportion",
    "rows",
    "Ġswall",
    "Ġwrap",
    "Ġmoody",
    "Ġarrived",
    "Ġembarrassment",
    "Ġeducation",
    "Ġsimil",
    "Ġmud",
    "Ġsill",
    "Ġpops",
    "Ġnovak",
    "Ġbands",
    "Ġplod",
    "Ġpsychopath",
    "Ġmessed",
    "Ġcharacteristic",
    "Ġcloud",
    "Ġdoct",
    "Ġoutfit",
    "Ġsimmons",
    "function",
    "Ġreno",
    "Ġbridget",
    "Ġcrucial",
    "Ġclosed",
    "Ġbrutally",
    "Ġbee",
    "Ġraising",
    "Ġrandy",
    "Ġbasketball",
    "enger",
    "Ġtrav",
    "Ġreads",
    "Ġacid",
    "Ġblatant",
    "Ġseptember",
    "Ġdefense",
    "Ġnerd",
    "Ġbuffalo",
    "Ġdeaf",
    "Ġlegal",
    "Ġnewly",
    "Ġkicked",
    "Ġminimum",
    "Ġstevens",
    "Ġutil",
    "Ġrangers",
    "Ġgentleman",
    "Ġamitabh",
    "Ġvaguely",
    "crow",
    "Ġgrate",
    "Ġlip",
    "Ġcav",
    "Ġcivilization",
    "Ġmentioning",
    "ints",
    "Ġdiana",
    "Ġlumet",
    "isons",
    "uge",
    "Ġanalys",
    "Ġscotland",
    "Ġcopies",
    "Ġdesired",
    "Ġrecyc",
    "Ġsafety",
    "spoilers",
    "chen",
    "Ġnar",
    "Ġinsomnia",
    "Ġsuitable",
    "Ġmarc",
    "eps",
    "Ġmonk",
    "Ġmtv",
    "Ġalternative",
    "Ġpants",
    "Ġbiko",
    "Ġcatching",
    "Ġ22",
    "Ġsimult",
    "igm",
    "Ġwhit",
    "Ġworn",
    "Ġconnery",
    "Ġspain",
    "Ġengage",
    "Ġflies",
    "Ġinject",
    "Ġshod",
    "Ġintric",
    "Ġstark",
    "Ġobst",
    "ested",
    "Ġjed",
    "Ġarrogant",
    "Ġsigned",
    "Ġduty",
    "Ġaccompanied",
    "Ġwitches",
    "Ġustinov",
    "Ġliterature",
    "Ġfuller",
    "Ġniro",
    "Ġspock",
    "Ġcarradine",
    "Ġcri",
    "Ġgabriel",
    "Ġjaws",
    "Ġfier",
    "Ġmatched",
    "Ġelephant",
    "Ġanaly",
    "astically",
    "rett",
    "Ġwhis",
    "Ġantonioni",
    "Ġalison",
    "Ġrav",
    "Ġballs",
    "ryn",
    "Ġpearl",
    "Ġowen",
    "Ġlengthy",
    "Ġkyle",
    "Ġbacall",
    "Ġadvertising",
    "Ġcatchy",
    "Ġquestionable",
    "Ġgenerated",
    "ructive",
    "Ġscand",
    "Ġabsent",
    "Ġrestored",
    "Ġenthusiasm",
    "Ġwished",
    "Ġabusive",
    "Ġinvasion",
    "Ġapple",
    "Ġwillis",
    "Ġlinda",
    "zing",
    "Ġsimilarly",
    "Ġpublish",
    "Ġcurs",
    "Ġrud",
    "ovich",
    "Ġrichardson",
    "Ġzeal",
    "uity",
    "Ġwilderness",
    "Ġshowdown",
    "Ġamounts",
    "Ġlush",
    "Ġfacing",
    "Ġmurray",
    "Ġwhats",
    "Ġunexpl",
    "ivals",
    "Ġarmed",
    "Ġtaxi",
    "Ġthomp",
    "ours",
    "Ġonline",
    "Ġschlock",
    "hal",
    "Ġcontradict",
    "Ġseeks",
    "Ġirres",
    "annah",
    "Ġfaults",
    "Ġwitnessed",
    "Ġgoo",
    "Ġvirginia",
    "Ġchicken",
    "iant",
    "Ġ1973",
    "Ġcoff",
    "Ġaustin",
    "Ġstaring",
    "Ġconstructed",
    "Ġreck",
    "Ġchand",
    "Ġrecognition",
    "Ġrabbit",
    "Ġlect",
    "eta",
    "Ġbreed",
    "Ġbrash",
    "Ġritual",
    "Ġloos",
    "ubby",
    "Ġdepend",
    "Ġorphan",
    "Ġireland",
    "Ġincompetent",
    "Ġpurposes",
    "Ġnicholas",
    "Ġviewings",
    "irect",
    "Ġunoriginal",
    "Ġpoetic",
    "Ġvisits",
    "Ġminus",
    "Ġblacks",
    "Ġengross",
    "Ġexcessive",
    "Ġstereotype",
    "Ġapril",
    "cia",
    "Ġovert",
    "Ġlowest",
    "Ġedition",
    "Ġunst",
    "Ġtraff",
    "Ġsits",
    "Ġtwil",
    "Ġtwilight",
    "Ġorg",
    "dow",
    "Ġhyde",
    "Ġsolution",
    "Ġsappy",
    "Ġentr",
    "Ġthompson",
    "antee",
    "Ġhelm",
    "Ġrhyth",
    "Ġmasterful",
    "Ġsounding",
    "Ġninja",
    "ala",
    "Ġcareful",
    "Ġclosest",
    "Ġseld",
    "ersh",
    "Ġlogan",
    "Ġobli",
    "Ġreid",
    "tery",
    "ggy",
    "etti",
    "Ġmighty",
    "Ġpurchase",
    "Ġignorant",
    "Ġremarks",
    "Ġheights",
    "Ġplight",
    "Ġmankind",
    "Ġshangh",
    "Ġexperiments",
    "ushi",
    "Ġsquad",
    "Ġexorc",
    "Ġrendition",
    "Ġdand",
    "Ġadaptations",
    "leans",
    "Ġbela",
    "Ġresources",
    "Ġdistingu",
    "Ġdeme",
    "Ġpric",
    "Ġpriceless",
    "otion",
    "Ġalbum",
    "Ġscottish",
    "Ġashley",
    "issa",
    "mel",
    "Ġtrace",
    "Ġfascinated",
    "Ġshameless",
    "Ġriot",
    "Ġmisery",
    "Ġwalt",
    "Ġhench",
    "Ġpalace",
    "Ġnostalgia",
    "Ġrevis",
    "Ġjumped",
    "Ġfont",
    "ener",
    "Ġattrib",
    "Ġwrench",
    "Ġalec",
    "Ġbaldwin",
    "Ġmarketing",
    "Ġsynd",
    "Ġhoney",
    "Ġrobinson",
    "life",
    "Ġdefined",
    "water",
    "Ġenlight",
    "Ġvegas",
    "Ġwaited",
    "Ġpreston",
    "oral",
    "Ġkeith",
    "Ġenfor",
    "Ġcorporate",
    "Ġmeand",
    "Ġcasual",
    "Ġpeoples",
    "watch",
    "Ġtonight",
    "iley",
    "Ġwishing",
    "Ġvulnerable",
    "Ġjord",
    "Ġreaching",
    "izations",
    "Ġwrapped",
    "Ġwillie",
    "Ġopportunities",
    "Ġwacky",
    "Ġsentin",
    "eping",
    "Ġgermans",
    "bast",
    "Ġairport",
    "Ġcouples",
    "Ġconflicts",
    "Ġintentionally",
    "Ġcenters",
    "redict",
    "Ġsas",
    "Ġinane",
    "Ġ1971",
    "Ġstor",
    "Ġbeliefs",
    "Ġneighbors",
    "Ġreson",
    "Ġpoo",
    "Ġphony",
    "Ġ1987",
    "utions",
    "Ġpee",
    "Ġpackage",
    "Ġshanghai",
    "Ġparanoia",
    "Ġgrayson",
    "Ġunhappy",
    "stage",
    "Ġ75",
    "Ġarchite",
    "Ġwaitress",
    "Ġappreciation",
    "veloped",
    "Ġbargain",
    "Ġcoup",
    "Ġka",
    "Ġabra",
    "Ġabraham",
    "hin",
    "Ġ1997",
    "Ġdemented",
    "Ġmentions",
    "Ġpaltrow",
    "Ġmanipulative",
    "uated",
    "Ġmechanical",
    "Ġprisoner",
    "Ġshowcase",
    "alie",
    "Ġsoci",
    "cket",
    "Ġintroduce",
    "Ġhumble",
    "Ġproceeds",
    "atics",
    "Ġwisdom",
    "Ġtherap",
    "Ġsensational",
    "Ġunim",
    "Ġdegr",
    "Ġgret",
    "Ġjune",
    "Ġchallenging",
    "Ġcripp",
    "Ġunaw",
    "Ġvalley",
    "Ġtribe",
    "Ġuseful",
    "Ġridden",
    "Ġexquis",
    "Ġagreed",
    "Ġtroops",
    "woman",
    "Ġcards",
    "Ġmonolog",
    "Ġhabit",
    "Ġdreck",
    "Ġmasterpieces",
    "Ġserving",
    "Ġequip",
    "Ġstale",
    "Ġethan",
    "Ġorange",
    "yers",
    "Ġprev",
    "Ġomen",
    "Ġpromises",
    "Ġmonot",
    "Ġintim",
    "ashi",
    "Ġnaught",
    "Ġfarrell",
    "Ġtomatoes",
    "Ġhunters",
    "Ġdamme",
    "Ġratso",
    "Ġmacarthur",
    "Ġisab",
    "Ġvaluable",
    "Ġnicol",
    "Ġarchitect",
    "Ġshed",
    "Ġloaded",
    "Ġoutd",
    "Ġclip",
    "Ġitems",
    "Ġroots",
    "eson",
    "Ġsignificance",
    "Ġunra",
    "Ġpotentially",
    "Ġdropping",
    "illiam",
    "Ġchave",
    "Ġchavez",
    "Ġprisoners",
    "roc",
    "osis",
    "Ġinappropriate",
    "Ġsubjected",
    "Ġpoem",
    "Ġcomprom",
    "Ġpopularity",
    "Ġindic",
    "Ġalternate",
    "Ġperce",
    "borough",
    "Ġsurvivor",
    "Ġtroubles",
    "Ġpas",
    "Ġedgy",
    "Ġlosers",
    "forward",
    "ĠfiancÃ©",
    "Ġwarmth",
    "Ġblackmail",
    "itled",
    "Ġcreativity",
    "Ġlegit",
    "Ġroof",
    "Ġfeminist",
    "Ġdysfunction",
    "Ġproperty",
    "mp",
    "Ġcomplexity",
    "Ġaudition",
    "idently",
    "Ġuh",
    "Ġsoder",
    "Ġslash",
    "aman",
    "Ġrichards",
    "Ġcrown",
    "Ġreported",
    "Ġlibert",
    "Ġguarantee",
    "Ġkra",
    "Ġsquare",
    "Ġgrabb",
    "Ġpsychic",
    "Ġmclaglen",
    "Ġirrelevant",
    "Ġunden",
    "onymous",
    "Ġsentinel",
    "cont",
    "Ġexceptionally",
    "Ġmunch",
    "Ġmilk",
    "arted",
    "ption",
    "Ġprotest",
    "Ġeastern",
    "Ġimprovement",
    "Ġpunishment",
    "Ġscarecrow",
    "fire",
    "Ġthunderbird",
    "Ġyok",
    "Ġunpredict",
    "Ġtechnicol",
    "Ġbelushi",
    "Ġgreatness",
    "Ġpierce",
    "Ġgreg",
    "Ġscope",
    "Ġquinn",
    "Ġchristianity",
    "Ġbehold",
    "icking",
    "Ġunravel",
    "Ġrapt",
    "Ġtripe",
    "Ġzor",
    "Ġhans",
    "Ġhistorically",
    "Ġexposure",
    "Ġvalid",
    "Ġdeceased",
    "Ġprequel",
    "emic",
    "Ġincorpor",
    "Ġwret",
    "oning",
    "angle",
    "Ġcongr",
    "Ġsimultaneously",
    "abled",
    "Ġraymond",
    "alled",
    "Ġbusinessman",
    "Ġairplane",
    "Ġlands",
    "Ġrobbery",
    "Ġbumbling",
    "Ġdomestic",
    "Ġholl",
    "Ġlois",
    "Ġincomprehensible",
    "Ġfleet",
    "Ġsubl",
    "Ġsmiling",
    "Ġensues",
    "Ġspacey",
    "ji",
    "Ġobjects",
    "hears",
    "obi",
    "Ġquit",
    "Ġrude",
    "Ġmccoy",
    "Ġsharon",
    "Ġcaliber",
    "Ġcec",
    "Ġunaware",
    "Ġguitar",
    "ping",
    "vised",
    "Ġsweat",
    "Ġconfron",
    "Ġmethods",
    "Ġwatson",
    "Ġcompelled",
    "Ġdreary",
    "Ġsmack",
    "Ġsf",
    "Ġoperation",
    "Ġwoe",
    "uries",
    "Ġpersons",
    "Ġkolch",
    "Ġdeniro",
    "Ġassumed",
    "Ġunseen",
    "Ġfee",
    "Ġrespected",
    "anos",
    "Ġorleans",
    "Ġborrowed",
    "Ġimitation",
    "Ġmundane",
    "Ġbottle",
    "Ġbrutality",
    "Ġclu",
    "Ġconfrontation",
    "Ġtomor",
    "Ġtacky",
    "Ġwals",
    "Ġwalsh",
    "Ġprimitive",
    "Ġwarriors",
    "Ġanalysis",
    "Ġstim",
    "leck",
    "Ġindiffer",
    "Ġrecording",
    "iti",
    "Ġprey",
    "Ġspoke",
    "cca",
    "irs",
    "ettes",
    "Ġdisgrace",
    "Ġanc",
    "Ġreceives",
    "Ġexpedition",
    "Ġinability",
    "rier",
    "Ġcensors",
    "Ġoly",
    "Ġfields",
    "Ġtastes",
    "Ġ2008",
    "Ġresulting",
    "uf",
    "Ġsupported",
    "Ġunimagin",
    "Ġchicks",
    "Ġkings",
    "enth",
    "Ġequivalent",
    "bergh",
    "Ġfart",
    "Ġbrenda",
    "Ġguin",
    "Ġcities",
    "Ġgib",
    "Ġcondem",
    "Ġmolly",
    "tends",
    "Ġrhythm",
    "Ġpars",
    "Ġpolished",
    "Ġassured",
    "Ġunit",
    "Ġmusicians",
    "Ġaugust",
    "Ġships",
    "Ġmap",
    "Ġcannon",
    "Ġequipment",
    "Ġcattle",
    "icism",
    "Ġaccomplish",
    "Ġexchange",
    "issance",
    "Ġstrangers",
    "Ġscra",
    "Ġresponsibility",
    "Ġsugar",
    "Ġwy",
    "Ġvengeance",
    "aaaa",
    "Ġpuppet",
    "Ġmarshall",
    "Ġreign",
    "Ġbread",
    "Ġastron",
    "Ġrail",
    "ndel",
    "gio",
    "Ġexposition",
    "Ġdemean",
    "Ġkumar",
    "Ġmete",
    "Ġaccuracy",
    "Ġsimplicity",
    "orders",
    "Ġmorbid",
    "Ġmemor",
    "Ġsoup",
    "ucky",
    "Ġstab",
    "Ġinterests",
    "Ġbast",
    "Ġwretched",
    "Ġsilliness",
    "Ġjoined",
    "Ġlouise",
    "Ġalfred",
    "Ġslice",
    "Ġwandering",
    "Ġamazon",
    "Ġgrief",
    "lied",
    "onne",
    "Ġsurfing",
    "Ġassigned",
    "Ġbiased",
    "Ġlic",
    "Ġlex",
    "Ġempathy",
    "Ġparties",
    "Ġrecre",
    "Ġrational",
    "Ġadvise",
    "Ġtro",
    "Ġ3000",
    "Ġsoderbergh",
    "Ġgeek",
    "Ġsuggested",
    "Ġhilariously",
    "Ġcaut",
    "Ġunderlying",
    "Ġ1936",
    "Ġdamon",
    "ansas",
    "sect",
    "Ġweather",
    "Ġpron",
    "Ġlil",
    "Ġsess",
    "Ġseldom",
    "Ġroller",
    "Ġwitnesses",
    "Ġsixt",
    "Ġsixties",
    "plo",
    "Ġsie",
    "road",
    "esc",
    "Ġawfully",
    "Ġvein",
    "lins",
    "Ġtat",
    "Ġphrase",
    "Ġsched",
    "Ġbubb",
    "ghan",
    "Ġtyr",
    "fast",
    "Ġdefinition",
    "Ġalleged",
    "Ġunle",
    "Ġpolanski",
    "Ġwu",
    "Ġmcg",
    "Ġdemonic",
    "Ġjoh",
    "Ġguarante",
    "Ġchallenged",
    "Ġchampionship",
    "tones",
    "Ġgifted",
    "Ġfemales",
    "Ġrandomly",
    "Ġpaulie",
    "Ġdanish",
    "Ġtechnicolor",
    "Ġbutler",
    "Ġpetty",
    "Ġwagner",
    "Ġstooges",
    "gie",
    "Ġantwone",
    "Ġaddicted",
    "Ġspecially",
    "Ġexpand",
    "Ġmalone",
    "Ġcrystal",
    "Ġreader",
    "Ġfurn",
    "Ġtomorrow",
    "Ġgreed",
    "acity",
    "arring",
    "Ġintegrity",
    "Ġtrump",
    "etically",
    "Ġtaught",
    "Ġtasteless",
    "cha",
    "Ġfrankenstein",
    "Ġinsip",
    "Ġinsipid",
    "Ġmerits",
    "Ġdele",
    "Ġfingers",
    "Ġangela",
    "Ġeducational",
    "Ġclarke",
    "Ġpressure",
    "Ġstunned",
    "zzy",
    "Ġrises",
    "Ġfrustrating",
    "cel",
    "Ġservant",
    "Ġstraightforward",
    "Ġhusbands",
    "Ġuplifting",
    "Ġdarn",
    "Ġrack",
    "Ġcaps",
    "Ġconditions",
    "Ġquietly",
    "icia",
    "ersed",
    "Ġkitty",
    "Ġleaders",
    "Ġfury",
    "olves",
    "Ġwire",
    "Ġmyr",
    "set",
    "Ġfiller",
    "aving",
    "bury",
    "Ġgroo",
    "Ġreflection",
    "Ġhopkins",
    "Ġbeverly",
    "Ġnicole",
    "Ġchamberl",
    "Ġchecked",
    "Ġshared",
    "Ġkissing",
    "Ġbaff",
    "Ġovers",
    "Ġcecil",
    "Ġselect",
    "itated",
    "Ġobtain",
    "Ġlanding",
    "maid",
    "Ġ1984",
    "Ġnathan",
    "Ġbure",
    "cut",
    "Ġstretched",
    "char",
    "Ġromp",
    "Ġambiguous",
    "Ġmeryl",
    "Ġfemme",
    "Ġhoo",
    "Ġunexpectedly",
    "Ġchannels",
    "Ġbuster",
    "Ġcod",
    "Ġtier",
    "Ġpete",
    "Ġgangsters",
    "Ġdepicting",
    "Ġbilled",
    "Ġstad",
    "Ġnonsens",
    "Ġactivities",
    "Ġbub",
    "Ġ1995",
    "Ġslut",
    "Ġrespectively",
    "Ġtact",
    "anted",
    "Ġresemble",
    "Ġindulgent",
    "ndan",
    "Ġfundamental",
    "Ġmelody",
    "Ġslip",
    "essa",
    "Ġrates",
    "Ġproc",
    "Ġgrass",
    "vial",
    "Ġguests",
    "Ġliterary",
    "arse",
    "enborough",
    "Ġot",
    "zer",
    "agn",
    "Ġrita",
    "Ġwides",
    "creen",
    "but",
    "Ġdirections",
    "Ġglasses",
    "Ġcem",
    "Ġfried",
    "Ġdil",
    "Ġvictory",
    "Ġvisible",
    "oodle",
    "Ġbert",
    "Ġobjective",
    "Ġmusician",
    "Ġradical",
    "Ġchoppy",
    "Ġcircus",
    "Ġcomposer",
    "Ġmillionaire",
    "Ġbiography",
    "aste",
    "Ġcanyon",
    "Ġbabies",
    "Ġrussia",
    "Ġtin",
    "Ġjudgment",
    "Ġvisited",
    "Ġesther",
    "Ġbloom",
    "Ġpill",
    "Ġcracking",
    "Ġbitten",
    "bra",
    "Ġdesires",
    "Ġprogresses",
    "Ġknocked",
    "Ġcelest",
    "Ġ73",
    "ipe",
    "Ġawh",
    "Ġawhile",
    "Ġlikewise",
    "Ġignorance",
    "Ġdowney",
    "Ġantagon",
    "Ġrolled",
    "Ġbetrayal",
    "Ġramones",
    "Ġkolchak",
    "Ġlev",
    "Ġoveracting",
    "itter",
    "Ġruins",
    "Ġchainsaw",
    "Ġkathryn",
    "Ġnonsensical",
    "acious",
    "Ġtends",
    "Ġsway",
    "Ġretired",
    "Ġtarantino",
    "Ġtube",
    "icable",
    "Ġelm",
    "Ġpaz",
    "Ġcoincidence",
    "Ġaesth",
    "Ġdifficulties",
    "haust",
    "Ġcontempt",
    "zzzz",
    "Ġhandling",
    "Ġcomplaints",
    "mber",
    "Ġbarrymore",
    "Ġhughes",
    "Ġframed",
    "Ġvain",
    "Ġos",
    "Ġbetty",
    "Ġpatients",
    "liest",
    "Ġearnest",
    "inations",
    "Ġaffairs",
    "Ġstopping",
    "Ġrising",
    "Ġeb",
    "Ġinvites",
    "Ġwander",
    "Ġolymp",
    "Ġfade",
    "Ġ1933",
    "Ġinexplicably",
    "Ġrevers",
    "Ġtravesty",
    "Ġ1969",
    "fest",
    "Ġaristocr",
    "Ġnyc",
    "Ġguinness",
    "Ġsaint",
    "brid",
    "Ġexpressed",
    "car",
    "Ġoccasions",
    "Ġlampoon",
    "Ġinvestigating",
    "Ġplausible",
    "itable",
    "fl",
    "Ġmurdering",
    "anch",
    "Ġgiov",
    "Ġpreposter",
    "Ġshades",
    "Ġgable",
    "Ġlackluster",
    "Ġvom",
    "Ġshred",
    "uri",
    "Ġcomplaining",
    "gling",
    "Ġdressing",
    "Ġwholly",
    "Ġsassy",
    "Ġcarla",
    "Ġleather",
    "put",
    "Ġstuart",
    "orth",
    "Ġdana",
    "Ġbitch",
    "Ġrug",
    "Ġfurious",
    "Ġinducing",
    "Ġdisgusted",
    "Ġcancer",
    "ouri",
    "rob",
    "Ġcros",
    "Ġfrost",
    "Ġyard",
    "Ġpert",
    "Ġants",
    "break",
    "Ġpalance",
    "Ġphantom",
    "Ġinsurance",
    "Ġoption",
    "Ġclueless",
    "entin",
    "Ġki",
    "Ġeternal",
    "rehe",
    "Ġbrig",
    "Ġautomatically",
    "Ġtrem",
    "Ġowners",
    "Ġfought",
    "Ġphillip",
    "Ġoutdo",
    "Ġladder",
    "Ġmasks",
    "Ġsummar",
    "azing",
    "atable",
    "Ġconsci",
    "Ġcorrectly",
    "Ġvisiting",
    "Ġwaves",
    "Ġlegacy",
    "Ġbasinger",
    "Ġpix",
    "Ġtranslated",
    "Ġ1920",
    "bly",
    "Ġstern",
    "iour",
    "Ġrant",
    "Ġ1989",
    "Ġhears",
    "Ġregion",
    "Ġcompliment",
    "Ġsubstant",
    "Ġconviction",
    "Ġchuckle",
    "Ġsleaze",
    "Ġordered",
    "Ġunli",
    "kable",
    "Ġleigh",
    "Ġimmediate",
    "Ġlux",
    "Ġuncut",
    "ovsky",
    "Ġamusement",
    "Ġvocal",
    "Ġshoulders",
    "Ġprecisely",
    "Ġguer",
    "burne",
    "Ġconfir",
    "Ġgregory",
    "Ġpursuit",
    "Ġfilling",
    "ae",
    "Ġtip",
    "Ġclut",
    "Ġpremiere",
    "ih",
    "Ġinevitably",
    "Ġtyler",
    "uting",
    "Ġpump",
    "Ġpositively",
    "Ġgersh",
    "Ġnewman",
    "Ġpreposterous",
    "Ġfiles",
    "Ġsatisfy",
    "Ġwhoopi",
    "Ġrobbins",
    "see",
    "Ġhackney",
    "strong",
    "Ġjews",
    "Ġcharged",
    "Ġcampa",
    "Ġhep",
    "Ġcredited",
    "xton",
    "going",
    "Ġmoreover",
    "Ġdaniels",
    "Ġdrake",
    "Ġremained",
    "asco",
    "Ġwounded",
    "Ġbrood",
    "ummer",
    "Ġhaired",
    "Ġhomes",
    "Ġfilth",
    "Ġbend",
    "Ġintimate",
    "Ġbil",
    "Ġaspiring",
    "ift",
    "Ġparade",
    "Ġbanal",
    "Ġclad",
    "Ġinteractions",
    "Ġfoxx",
    "Ġlonel",
    "Ġmeteor",
    "Ġcarey",
    "Ġbrendan",
    "Ġregarded",
    "Ġexhaust",
    "Ġcontrolled",
    "Ġfirstly",
    "Ġlaughably",
    "Ġraz",
    "Ġrestrict",
    "Ġdilem",
    "Ġleap",
    "Ġearl",
    "Ġwww",
    "inate",
    "Ġcitizens",
    "Ġadmirable",
    "Ġarrang",
    "Ġshopping",
    "Ġattenborough",
    "Ġappropriately",
    "Ġgwyn",
    "Ġangst",
    "Ġshouting",
    "Ġrealised",
    "Ġcemet",
    "Ġerr",
    "itzer",
    "Ġadolescent",
    "yll",
    "Ġcigaret",
    "Ġhello",
    "Ġnaschy",
    "Ġhistoric",
    "Ġpoliceman",
    "Ġprovocative",
    "Ġhapless",
    "Ġunrelated",
    "Ġdemise",
    "Ġbump",
    "Ġgrabs",
    "Ġ1988",
    "Ġtriple",
    "Ġjordan",
    "Ġperforms",
    "Ġagenda",
    "box",
    "Ġcliffh",
    "rot",
    "Ġlester",
    "Ġdow",
    "Ġmasses",
    "Ġga",
    "apable",
    "Ġmayhem",
    "Ġdisliked",
    "Ġcomedians",
    "Ġhackneyed",
    "Ġvital",
    "Ġ1979",
    "Ġcassidy",
    "Ġ95",
    "Ġcounts",
    "neath",
    "Ġ23",
    "Ġdeserted",
    "pa",
    "Ġbeatles",
    "Ġgram",
    "Ġdandy",
    "onson",
    "Ġmathieu",
    "Ġcounterp",
    "Ġwildly",
    "Ġcollaps",
    "Ġpromote",
    "Ġquarter",
    "Ġloneliness",
    "Ġsuffice",
    "Ġgenerations",
    "osing",
    "Ġstages",
    "Ġpages",
    "Ġcelebration",
    "Ġasyl",
    "Ġasylum",
    "Ġconclude",
    "Ġcaricatures",
    "wind",
    "Ġouting",
    "Ġquaid",
    "Ġunin",
    "Ġcateg",
    "Ġpatience",
    "Ġdistribution",
    "Ġfabric",
    "Ġcad",
    "Ġhulk",
    "Ġatroc",
    "Ġmoronic",
    "Ġcope",
    "Ġunlikable",
    "Ġentitled",
    "Ġinternal",
    "Ġchooses",
    "Ġrespective",
    "Ġshoddy",
    "Ġmoron",
    "Ġpitiful",
    "Ġraises",
    "Ġmuddled",
    "Ġ1986",
    "eday",
    "Ġyoungest",
    "Ġgate",
    "Ġportug",
    "Ġkidman",
    "Ġoutfits",
    "having",
    "pton",
    "Ġpraised",
    "Ġbibl",
    "Ġkansas",
    "Ġraines",
    "Ġrukh",
    "Ġpassable",
    "oria",
    "Ġtwins",
    "Ġodys",
    "Ġprofanity",
    "Ġacclaimed",
    "Ġnoises",
    "iki",
    "Ġrealm",
    "Ġsingers",
    "Ġnarrow",
    "Ġsissy",
    "Ġfifty",
    "Ġsuspension",
    "Ġwhack",
    "Ġpopping",
    "Ġencourage",
    "Ġcream",
    "Ġincidentally",
    "Ġstargate",
    "Ġboyle",
    "Ġparamount",
    "Ġcushing",
    "Ġbacks",
    "iko",
    "Ġsketch",
    "chan",
    "Ġsenses",
    "Ġslack",
    "Ġgris",
    "Ġviewpoint",
    "Ġinsights",
    "Ġcolin",
    "Ġrapp",
    "Ġdiab",
    "rin",
    "Ġadopted",
    "amin",
    "Ġoldest",
    "Ġdoubts",
    "Ġunderneath",
    "Ġevolution",
    "club",
    "Ġamused",
    "Ġabsurdity",
    "Ġdefeated",
    "Ġbeg",
    "Ġsleepwalk",
    "Ġparan",
    "Ġmisgu",
    "Ġinfected",
    "Ġloyalty",
    "Ġgrainy",
    "Ġrefuge",
    "Ġdiver",
    "Ġsmar",
    "okay",
    "Ġspinal",
    "Ġsubplots",
    "Ġeug",
    "Ġimprob",
    "Ġvoiced",
    "Ġchallenges",
    "Ġtunnel",
    "Ġbernard",
    "Ġmisleading",
    "Ġinfin",
    "Ġbars",
    "iker",
    "Ġebert",
    "Ġhelpful",
    "Ġrefused",
    "Ġfontaine",
    "Ġkline",
    "Ġancest",
    "dan",
    "Ġhatch",
    "Ġtwent",
    "Ġbefriends",
    "Ġbloss",
    "encies",
    "Ġhokey",
    "born",
    "Ġcruelty",
    "Ġrounded",
    "Ġdoctors",
    "Ġstumbled",
    "Ġreceiving",
    "Ġdeput",
    "Ġadditional",
    "Ġharmless",
    "rina",
    "Ġhammy",
    "Ġkarl",
    "Ġpresenting",
    "Ġemerges",
    "Ġhousewife",
    "Ġlaurence",
    "Ġposey",
    "Ġredund",
    "Ġvictorian",
    "Ġhend",
    "Ġtomb",
    "Ġharold",
    "Ġfreeze",
    "Ġstartling",
    "Ġrejected",
    "Ġreflects",
    "Ġtops",
    "ev",
    "Ġgap",
    "Ġhungry",
    "Ġbureau",
    "Ġsebast",
    "Ġstudies",
    "jay",
    "Ġchills",
    "umi",
    "Ġpenny",
    "Ġcampaign",
    "Ġcoaster",
    "Ġpreachy",
    "Ġacceptance",
    "leen",
    "Ġchristine",
    "Ġroute",
    "Ġindication",
    "Ġgillian",
    "Ġfiring",
    "Ġfishing",
    "Ġtorment",
    "Ġcorman",
    "van",
    "Ġshowc",
    "Ġcrazed",
    "Ġmartha",
    "Ġteaches",
    "Ġthreatens",
    "Ġ1978",
    "usch",
    "Ġnorthern",
    "Ġzombi",
    "Ġdj",
    "Ġsopranos",
    "Ġwang",
    "Ġloren",
    "Ġak",
    "felt",
    "Ġbeow",
    "Ġbeowulf",
    "opa",
    "Ġariel",
    "Ġcomparisons",
    "Ġdifficul",
    "Ġdifficulty",
    "olis",
    "Ġheist",
    "Ġpedest",
    "Ġselection",
    "otti",
    "Ġstrongest",
    "Ġdiscovering",
    "Ġmusc",
    "Ġbanter",
    "Ġtestament",
    "Ġabb",
    "Ġneill",
    "ulation",
    "Ġrecycled",
    "Ġexceptions",
    "Ġzorro",
    "Ġace",
    "Ġrope",
    "Ġbeware",
    "Ġvanessa",
    "Ġpole",
    "Ġsums",
    "Ġmirrors",
    "Ġwidescreen",
    "Ġcemetery",
    "Ġdecap",
    "Ġdysfunctional",
    "Ġabund",
    "ensen",
    "Ġbike",
    "Ġsust",
    "Ġpreced",
    "Ġsooner",
    "Ġsteady",
    "Ġaccepts",
    "Ġtrend",
    "Ġposters",
    "Ġghett",
    "Ġunexplained",
    "Ġenthr",
    "Ġsubm",
    "Ġsuspic",
    "Ġtracking",
    "pecting",
    "Ġportrayals",
    "Ġbeth",
    "Ġdesigner",
    "Ġretire",
    "ables",
    "Ġtaut",
    "Ġteachers",
    "Ġpronoun",
    "Ġshares",
    "arnation",
    "Ġcharms",
    "Ġsalt",
    "zes",
    "Ġbachel",
    "osition",
    "Ġexceed",
    "Ġsalman",
    "Ġ1981",
    "Ġdimin",
    "Ġgypo",
    "Ġcommander",
    "Ġdresses",
    "Ġduch",
    "Ġcommunicate",
    "Ġconan",
    "Ġpounds",
    "zzard",
    "Ġincorrect",
    "Ġhopelessly",
    "Ġclin",
    "Ġmilo",
    "Ġfrightened",
    "Ġschne",
    "Ġhepburn",
    "Ġhippie",
    "Ġpaxton",
    "Ġsecondary",
    "Ġheartbreaking",
    "Ġcamc",
    "Ġracing",
    "Ġbutter",
    "Ġfido",
    "Ġbye",
    "Ġagency",
    "Ġinfo",
    "Ġpredecessor",
    "Ġein",
    "Ġnaughty",
    "Ġscroo",
    "Ġjoins",
    "Ġinvited",
    "Ġswords",
    "Ġunpredictable",
    "opic",
    "Ġroh",
    "crack",
    "gre",
    "ucker",
    "Ġiconic",
    "Ġhara",
    "Ġzen",
    "Ġhyst",
    "Ġnina",
    "Ġdevices",
    "Ġteaching",
    "Ġbrick",
    "Ġcomprehe",
    "Ġconsiderably",
    "Ġamrit",
    "Ġbass",
    "ayed",
    "Ġprepare",
    "Ġdespicable",
    "Ġprominent",
    "attering",
    "Ġframes",
    "Ġaffleck",
    "Ġgilliam",
    "Ġdecor",
    "Ġscreens",
    "Ġmelt",
    "Ġbsg",
    "Ġpremier",
    "Ġconrad",
    "Ġreferred",
    "Ġcompanies",
    "onto",
    "Ġdeleted",
    "Ġshoulder",
    "orman"
  ],
  "merges": [
    [
      "Ġ",
      "t",
      "Ġt"
    ],
    [
      "Ġ",
      "a",
      "Ġa"
    ],
    [
      "Ġt",
      "h",
      "Ġth"
    ],
    [
      "i",
      "n",
      "in"
    ],
    [
      "Ġ",
      "s",
      "Ġs"
    ],
    [
      "Ġth",
      "e",
      "Ġthe"
    ],
    [
      "e",
      "r",
      "er"
    ],
    [
      "Ġ",
      "w",
      "Ġw"
    ],
    [
      "Ġ",
      "i",
      "Ġi"
    ],
    [
      "Ġ",
      "o",
      "Ġo"
    ],
    [
      "r",
      "e",
      "re"
    ],
    [
      "Ġ",
      "m",
      "Ġm"
    ],
    [
      "Ġ",
      "b",
      "Ġb"
    ],
    [
      "Ġ",
      "h",
      "Ġh"
    ],
    [
      "Ġ",
      "f",
      "Ġf"
    ],
    [
      "n",
      "d",
      "nd"
    ],
    [
      "Ġ",
      "c",
      "Ġc"
    ],
    [
      "a",
      "t",
      "at"
    ],
    [
      "e",
      "n",
      "en"
    ],
    [
      "in",
      "g",
      "ing"
    ],
    [
      "e",
      "s",
      "es"
    ],
    [
      "o",
      "r",
      "or"
    ],
    [
      "i",
      "s",
      "is"
    ],
    [
      "o",
      "u",
      "ou"
    ],
    [
      "Ġ",
      "d",
      "Ġd"
    ],
    [
      "o",
      "n",
      "on"
    ],
    [
      "Ġ",
      "p",
      "Ġp"
    ],
    [
      "Ġa",
      "nd",
      "Ġand"
    ],
    [
      "l",
      "l",
      "ll"
    ],
    [
      "Ġt",
      "o",
      "Ġto"
    ],
    [
      "Ġo",
      "f",
      "Ġof"
    ],
    [
      "a",
      "n",
      "an"
    ],
    [
      "e",
      "d",
      "ed"
    ],
    [
      "Ġ",
      "l",
      "Ġl"
    ],
    [
      "a",
      "r",
      "ar"
    ],
    [
      "i",
      "t",
      "it"
    ],
    [
      "Ġ",
      "in",
      "Ġin"
    ],
    [
      "a",
      "s",
      "as"
    ],
    [
      "Ġ",
      "g",
      "Ġg"
    ],
    [
      "Ġi",
      "s",
      "Ġis"
    ],
    [
      "Ġ",
      "n",
      "Ġn"
    ],
    [
      "o",
      "m",
      "om"
    ],
    [
      "Ġ",
      "e",
      "Ġe"
    ],
    [
      "Ġi",
      "t",
      "Ġit"
    ],
    [
      "i",
      "c",
      "ic"
    ],
    [
      "l",
      "e",
      "le"
    ],
    [
      "o",
      "t",
      "ot"
    ],
    [
      "Ġw",
      "h",
      "Ġwh"
    ],
    [
      "u",
      "t",
      "ut"
    ],
    [
      "a",
      "l",
      "al"
    ],
    [
      "Ġb",
      "e",
      "Ġbe"
    ],
    [
      "c",
      "t",
      "ct"
    ],
    [
      "i",
      "l",
      "il"
    ],
    [
      "Ġm",
      "o",
      "Ġmo"
    ],
    [
      "Ġ",
      "re",
      "Ġre"
    ],
    [
      "s",
      "t",
      "st"
    ],
    [
      "l",
      "y",
      "ly"
    ],
    [
      "v",
      "e",
      "ve"
    ],
    [
      "i",
      "e",
      "ie"
    ],
    [
      "Ġo",
      "n",
      "Ġon"
    ],
    [
      "Ġth",
      "at",
      "Ġthat"
    ],
    [
      "Ġth",
      "is",
      "Ġthis"
    ],
    [
      "v",
      "er",
      "ver"
    ],
    [
      "Ġs",
      "t",
      "Ġst"
    ],
    [
      "en",
      "t",
      "ent"
    ],
    [
      "o",
      "w",
      "ow"
    ],
    [
      "a",
      "d",
      "ad"
    ],
    [
      "c",
      "h",
      "ch"
    ],
    [
      "i",
      "on",
      "ion"
    ],
    [
      "Ġ",
      "y",
      "Ġy"
    ],
    [
      "a",
      "y",
      "ay"
    ],
    [
      "e",
      "t",
      "et"
    ],
    [
      "g",
      "h",
      "gh"
    ],
    [
      "s",
      "e",
      "se"
    ],
    [
      "Ġ",
      "r",
      "Ġr"
    ],
    [
      "Ġ",
      "u",
      "Ġu"
    ],
    [
      "Ġw",
      "as",
      "Ġwas"
    ],
    [
      "Ġmo",
      "v",
      "Ġmov"
    ],
    [
      "Ġa",
      "s",
      "Ġas"
    ],
    [
      "it",
      "h",
      "ith"
    ],
    [
      "Ġa",
      "n",
      "Ġan"
    ],
    [
      "Ġf",
      "or",
      "Ġfor"
    ],
    [
      "i",
      "m",
      "im"
    ],
    [
      "Ġs",
      "h",
      "Ġsh"
    ],
    [
      "i",
      "d",
      "id"
    ],
    [
      "Ġf",
      "il",
      "Ġfil"
    ],
    [
      "Ġfil",
      "m",
      "Ġfilm"
    ],
    [
      "Ġs",
      "e",
      "Ġse"
    ],
    [
      "a",
      "ll",
      "all"
    ],
    [
      "Ġw",
      "ith",
      "Ġwith"
    ],
    [
      "k",
      "e",
      "ke"
    ],
    [
      "c",
      "e",
      "ce"
    ],
    [
      "o",
      "o",
      "oo"
    ],
    [
      "Ġ",
      "j",
      "Ġj"
    ],
    [
      "a",
      "m",
      "am"
    ],
    [
      "l",
      "d",
      "ld"
    ],
    [
      "Ġy",
      "ou",
      "Ġyou"
    ],
    [
      "Ġh",
      "e",
      "Ġhe"
    ],
    [
      "Ġmov",
      "ie",
      "Ġmovie"
    ],
    [
      "Ġb",
      "ut",
      "Ġbut"
    ],
    [
      "Ġc",
      "h",
      "Ġch"
    ],
    [
      "Ġh",
      "a",
      "Ġha"
    ],
    [
      "i",
      "r",
      "ir"
    ],
    [
      "t",
      "h",
      "th"
    ],
    [
      "Ġl",
      "i",
      "Ġli"
    ],
    [
      "t",
      "er",
      "ter"
    ],
    [
      "u",
      "r",
      "ur"
    ],
    [
      "Ġn",
      "ot",
      "Ġnot"
    ],
    [
      "i",
      "ll",
      "ill"
    ],
    [
      "Ġ",
      "k",
      "Ġk"
    ],
    [
      "all",
      "y",
      "ally"
    ],
    [
      "er",
      "s",
      "ers"
    ],
    [
      "Ġh",
      "is",
      "Ġhis"
    ],
    [
      "r",
      "o",
      "ro"
    ],
    [
      "c",
      "k",
      "ck"
    ],
    [
      "Ġs",
      "u",
      "Ġsu"
    ],
    [
      "Ġa",
      "t",
      "Ġat"
    ],
    [
      "Ġa",
      "re",
      "Ġare"
    ],
    [
      "r",
      "i",
      "ri"
    ],
    [
      "om",
      "e",
      "ome"
    ],
    [
      "r",
      "a",
      "ra"
    ],
    [
      "er",
      "e",
      "ere"
    ],
    [
      "Ġd",
      "e",
      "Ġde"
    ],
    [
      "Ġf",
      "r",
      "Ġfr"
    ],
    [
      "p",
      "e",
      "pe"
    ],
    [
      "ou",
      "ld",
      "ould"
    ],
    [
      "u",
      "l",
      "ul"
    ],
    [
      "Ġs",
      "o",
      "Ġso"
    ],
    [
      "Ġa",
      "l",
      "Ġal"
    ],
    [
      "Ġha",
      "ve",
      "Ġhave"
    ],
    [
      "Ġs",
      "c",
      "Ġsc"
    ],
    [
      "Ġ",
      "v",
      "Ġv"
    ],
    [
      "Ġw",
      "e",
      "Ġwe"
    ],
    [
      "gh",
      "t",
      "ght"
    ],
    [
      "Ġd",
      "o",
      "Ġdo"
    ],
    [
      "es",
      "t",
      "est"
    ],
    [
      "u",
      "st",
      "ust"
    ],
    [
      "Ġon",
      "e",
      "Ġone"
    ],
    [
      "Ġa",
      "ct",
      "Ġact"
    ],
    [
      "e",
      "m",
      "em"
    ],
    [
      "Ġa",
      "ll",
      "Ġall"
    ],
    [
      "Ġe",
      "x",
      "Ġex"
    ],
    [
      "Ġm",
      "a",
      "Ġma"
    ],
    [
      "u",
      "n",
      "un"
    ],
    [
      "Ġwh",
      "o",
      "Ġwho"
    ],
    [
      "Ġa",
      "b",
      "Ġab"
    ],
    [
      "Ġc",
      "om",
      "Ġcom"
    ],
    [
      "Ġp",
      "l",
      "Ġpl"
    ],
    [
      "es",
      "s",
      "ess"
    ],
    [
      "ver",
      "y",
      "very"
    ],
    [
      "a",
      "b",
      "ab"
    ],
    [
      "oo",
      "d",
      "ood"
    ],
    [
      "ou",
      "t",
      "out"
    ],
    [
      "Ġn",
      "e",
      "Ġne"
    ],
    [
      "Ġb",
      "y",
      "Ġby"
    ],
    [
      "Ġthe",
      "y",
      "Ġthey"
    ],
    [
      "a",
      "ct",
      "act"
    ],
    [
      "an",
      "t",
      "ant"
    ],
    [
      "g",
      "e",
      "ge"
    ],
    [
      "p",
      "p",
      "pp"
    ],
    [
      "o",
      "l",
      "ol"
    ],
    [
      "Ġh",
      "er",
      "Ġher"
    ],
    [
      "i",
      "es",
      "ies"
    ],
    [
      "u",
      "s",
      "us"
    ],
    [
      "a",
      "in",
      "ain"
    ],
    [
      "Ġw",
      "or",
      "Ġwor"
    ],
    [
      "ar",
      "t",
      "art"
    ],
    [
      "Ġli",
      "ke",
      "Ġlike"
    ],
    [
      "Ġfr",
      "om",
      "Ġfrom"
    ],
    [
      "Ġo",
      "r",
      "Ġor"
    ],
    [
      "Ġc",
      "on",
      "Ġcon"
    ],
    [
      "Ġs",
      "ome",
      "Ġsome"
    ],
    [
      "ou",
      "s",
      "ous"
    ],
    [
      "e",
      "l",
      "el"
    ],
    [
      "Ġo",
      "ut",
      "Ġout"
    ],
    [
      "h",
      "er",
      "her"
    ],
    [
      "is",
      "t",
      "ist"
    ],
    [
      "o",
      "p",
      "op"
    ],
    [
      "q",
      "u",
      "qu"
    ],
    [
      "as",
      "t",
      "ast"
    ],
    [
      "on",
      "e",
      "one"
    ],
    [
      "Ġthe",
      "re",
      "Ġthere"
    ],
    [
      "v",
      "en",
      "ven"
    ],
    [
      "Ġd",
      "i",
      "Ġdi"
    ],
    [
      "Ġj",
      "ust",
      "Ġjust"
    ],
    [
      "Ġm",
      "e",
      "Ġme"
    ],
    [
      "at",
      "ion",
      "ation"
    ],
    [
      "Ġu",
      "n",
      "Ġun"
    ],
    [
      "ou",
      "gh",
      "ough"
    ],
    [
      "u",
      "m",
      "um"
    ],
    [
      "i",
      "ght",
      "ight"
    ],
    [
      "Ġl",
      "e",
      "Ġle"
    ],
    [
      "Ġl",
      "o",
      "Ġlo"
    ],
    [
      "Ġp",
      "ro",
      "Ġpro"
    ],
    [
      "at",
      "e",
      "ate"
    ],
    [
      "a",
      "u",
      "au"
    ],
    [
      "Ġch",
      "ar",
      "Ġchar"
    ],
    [
      "ic",
      "h",
      "ich"
    ],
    [
      "f",
      "e",
      "fe"
    ],
    [
      "Ġab",
      "out",
      "Ġabout"
    ],
    [
      "Ġh",
      "as",
      "Ġhas"
    ],
    [
      "Ġt",
      "im",
      "Ġtim"
    ],
    [
      "Ġc",
      "an",
      "Ġcan"
    ],
    [
      "Ġg",
      "o",
      "Ġgo"
    ],
    [
      "at",
      "ch",
      "atch"
    ],
    [
      "or",
      "y",
      "ory"
    ],
    [
      "re",
      "s",
      "res"
    ],
    [
      "a",
      "nd",
      "and"
    ],
    [
      "Ġ",
      "1",
      "Ġ1"
    ],
    [
      "Ġm",
      "an",
      "Ġman"
    ],
    [
      "Ġn",
      "o",
      "Ġno"
    ],
    [
      "ar",
      "d",
      "ard"
    ],
    [
      "Ġi",
      "f",
      "Ġif"
    ],
    [
      "in",
      "d",
      "ind"
    ],
    [
      "Ġwh",
      "at",
      "Ġwhat"
    ],
    [
      "i",
      "ve",
      "ive"
    ],
    [
      "a",
      "ck",
      "ack"
    ],
    [
      "p",
      "t",
      "pt"
    ],
    [
      "Ġt",
      "r",
      "Ġtr"
    ],
    [
      "or",
      "t",
      "ort"
    ],
    [
      "Ġg",
      "ood",
      "Ġgood"
    ],
    [
      "Ġm",
      "y",
      "Ġmy"
    ],
    [
      "Ġsh",
      "e",
      "Ġshe"
    ],
    [
      "o",
      "s",
      "os"
    ],
    [
      "Ġan",
      "y",
      "Ġany"
    ],
    [
      "Ġu",
      "p",
      "Ġup"
    ],
    [
      "u",
      "d",
      "ud"
    ],
    [
      "oo",
      "k",
      "ook"
    ],
    [
      "re",
      "at",
      "reat"
    ],
    [
      "Ġchar",
      "act",
      "Ġcharact"
    ],
    [
      "a",
      "k",
      "ak"
    ],
    [
      "Ġmo",
      "re",
      "Ġmore"
    ],
    [
      "Ġin",
      "t",
      "Ġint"
    ],
    [
      "Ġw",
      "atch",
      "Ġwatch"
    ],
    [
      "Ġf",
      "e",
      "Ġfe"
    ],
    [
      "Ġg",
      "et",
      "Ġget"
    ],
    [
      "Ġse",
      "e",
      "Ġsee"
    ],
    [
      "Ġwh",
      "en",
      "Ġwhen"
    ],
    [
      "Ġ",
      "very",
      "Ġvery"
    ],
    [
      "on",
      "g",
      "ong"
    ],
    [
      "i",
      "g",
      "ig"
    ],
    [
      "re",
      "d",
      "red"
    ],
    [
      "Ġ",
      "en",
      "Ġen"
    ],
    [
      "Ġw",
      "ould",
      "Ġwould"
    ],
    [
      "it",
      "y",
      "ity"
    ],
    [
      "Ġc",
      "l",
      "Ġcl"
    ],
    [
      "Ġst",
      "ory",
      "Ġstory"
    ],
    [
      "Ġbe",
      "c",
      "Ġbec"
    ],
    [
      "Ġtim",
      "e",
      "Ġtime"
    ],
    [
      "ou",
      "nd",
      "ound"
    ],
    [
      "Ġe",
      "ven",
      "Ġeven"
    ],
    [
      "Ġh",
      "ow",
      "Ġhow"
    ],
    [
      "it",
      "e",
      "ite"
    ],
    [
      "f",
      "f",
      "ff"
    ],
    [
      "am",
      "e",
      "ame"
    ],
    [
      "Ġa",
      "m",
      "Ġam"
    ],
    [
      "Ġr",
      "o",
      "Ġro"
    ],
    [
      "Ġp",
      "er",
      "Ġper"
    ],
    [
      "ab",
      "le",
      "able"
    ],
    [
      "Ġwh",
      "ich",
      "Ġwhich"
    ],
    [
      "Ġon",
      "ly",
      "Ġonly"
    ],
    [
      "Ġb",
      "r",
      "Ġbr"
    ],
    [
      "Ġre",
      "ally",
      "Ġreally"
    ],
    [
      "Ġh",
      "ad",
      "Ġhad"
    ],
    [
      "Ġa",
      "r",
      "Ġar"
    ],
    [
      "h",
      "ing",
      "hing"
    ],
    [
      "Ġsh",
      "ow",
      "Ġshow"
    ],
    [
      "Ġo",
      "th",
      "Ġoth"
    ],
    [
      "Ġthe",
      "ir",
      "Ġtheir"
    ],
    [
      "a",
      "g",
      "ag"
    ],
    [
      "Ġsc",
      "en",
      "Ġscen"
    ],
    [
      "i",
      "ous",
      "ious"
    ],
    [
      "Ġw",
      "ere",
      "Ġwere"
    ],
    [
      "it",
      "t",
      "itt"
    ],
    [
      "b",
      "le",
      "ble"
    ],
    [
      "Ġt",
      "e",
      "Ġte"
    ],
    [
      "Ġh",
      "im",
      "Ġhim"
    ],
    [
      "Ġth",
      "an",
      "Ġthan"
    ],
    [
      "Ġw",
      "ill",
      "Ġwill"
    ],
    [
      "Ġp",
      "e",
      "Ġpe"
    ],
    [
      "Ġk",
      "n",
      "Ġkn"
    ],
    [
      "Ġwe",
      "ll",
      "Ġwell"
    ],
    [
      "a",
      "p",
      "ap"
    ],
    [
      "u",
      "re",
      "ure"
    ],
    [
      "ic",
      "k",
      "ick"
    ],
    [
      "Ġd",
      "id",
      "Ġdid"
    ],
    [
      "Ġi",
      "m",
      "Ġim"
    ],
    [
      "o",
      "re",
      "ore"
    ],
    [
      "Ġs",
      "p",
      "Ġsp"
    ],
    [
      "f",
      "ul",
      "ful"
    ],
    [
      "in",
      "k",
      "ink"
    ],
    [
      "Ġp",
      "o",
      "Ġpo"
    ],
    [
      "Ġe",
      "nd",
      "Ġend"
    ],
    [
      "a",
      "re",
      "are"
    ],
    [
      "m",
      "ent",
      "ment"
    ],
    [
      "Ġ",
      "qu",
      "Ġqu"
    ],
    [
      "o",
      "y",
      "oy"
    ],
    [
      "Ġo",
      "ver",
      "Ġover"
    ],
    [
      "Ġm",
      "u",
      "Ġmu"
    ],
    [
      "in",
      "e",
      "ine"
    ],
    [
      "Ġdo",
      "es",
      "Ġdoes"
    ],
    [
      "Ġthe",
      "m",
      "Ġthem"
    ],
    [
      "ar",
      "s",
      "ars"
    ],
    [
      "s",
      "o",
      "so"
    ],
    [
      "m",
      "an",
      "man"
    ],
    [
      "ou",
      "r",
      "our"
    ],
    [
      "Ġg",
      "reat",
      "Ġgreat"
    ],
    [
      "nd",
      "er",
      "nder"
    ],
    [
      "Ġb",
      "ad",
      "Ġbad"
    ],
    [
      "ad",
      "e",
      "ade"
    ],
    [
      "ay",
      "s",
      "ays"
    ],
    [
      "Ġb",
      "l",
      "Ġbl"
    ],
    [
      "Ġbe",
      "t",
      "Ġbet"
    ],
    [
      "Ġa",
      "d",
      "Ġad"
    ],
    [
      "c",
      "i",
      "ci"
    ],
    [
      "Ġl",
      "ook",
      "Ġlook"
    ],
    [
      "o",
      "d",
      "od"
    ],
    [
      "en",
      "ce",
      "ence"
    ],
    [
      "v",
      "es",
      "ves"
    ],
    [
      "au",
      "se",
      "ause"
    ],
    [
      "re",
      "ct",
      "rect"
    ],
    [
      "Ġf",
      "a",
      "Ġfa"
    ],
    [
      "Ġoth",
      "er",
      "Ġother"
    ],
    [
      "Ġmu",
      "ch",
      "Ġmuch"
    ],
    [
      "Ġmo",
      "st",
      "Ġmost"
    ],
    [
      "Ġt",
      "w",
      "Ġtw"
    ],
    [
      "Ġa",
      "f",
      "Ġaf"
    ],
    [
      "Ġd",
      "on",
      "Ġdon"
    ],
    [
      "is",
      "h",
      "ish"
    ],
    [
      "Ġc",
      "ould",
      "Ġcould"
    ],
    [
      "p",
      "l",
      "pl"
    ],
    [
      "Ġu",
      "s",
      "Ġus"
    ],
    [
      "ir",
      "st",
      "irst"
    ],
    [
      "Ġj",
      "o",
      "Ġjo"
    ],
    [
      "Ġbe",
      "en",
      "Ġbeen"
    ],
    [
      "ic",
      "e",
      "ice"
    ],
    [
      "Ġpe",
      "op",
      "Ġpeop"
    ],
    [
      "Ġe",
      "very",
      "Ġevery"
    ],
    [
      "Ġp",
      "re",
      "Ġpre"
    ],
    [
      "Ġd",
      "is",
      "Ġdis"
    ],
    [
      "Ġth",
      "r",
      "Ġthr"
    ],
    [
      "Ġpeop",
      "le",
      "Ġpeople"
    ],
    [
      "o",
      "g",
      "og"
    ],
    [
      "Ġint",
      "o",
      "Ġinto"
    ],
    [
      "Ġs",
      "a",
      "Ġsa"
    ],
    [
      "Ġdi",
      "rect",
      "Ġdirect"
    ],
    [
      "Ġal",
      "so",
      "Ġalso"
    ],
    [
      "in",
      "t",
      "int"
    ],
    [
      "u",
      "e",
      "ue"
    ],
    [
      "Ġto",
      "o",
      "Ġtoo"
    ],
    [
      "Ġbec",
      "ause",
      "Ġbecause"
    ],
    [
      "Ġf",
      "irst",
      "Ġfirst"
    ],
    [
      "p",
      "le",
      "ple"
    ],
    [
      "Ġa",
      "g",
      "Ġag"
    ],
    [
      "Ġkn",
      "ow",
      "Ġknow"
    ],
    [
      "id",
      "e",
      "ide"
    ],
    [
      "er",
      "t",
      "ert"
    ],
    [
      "Ġth",
      "ink",
      "Ġthink"
    ],
    [
      "Ġof",
      "f",
      "Ġoff"
    ],
    [
      "l",
      "f",
      "lf"
    ],
    [
      "Ġp",
      "art",
      "Ġpart"
    ],
    [
      "a",
      "ge",
      "age"
    ],
    [
      "Ġre",
      "al",
      "Ġreal"
    ],
    [
      "r",
      "y",
      "ry"
    ],
    [
      "Ġc",
      "o",
      "Ġco"
    ],
    [
      "as",
      "s",
      "ass"
    ],
    [
      "Ġw",
      "ay",
      "Ġway"
    ],
    [
      "Ġm",
      "ade",
      "Ġmade"
    ],
    [
      "p",
      "er",
      "per"
    ],
    [
      "Ġw",
      "r",
      "Ġwr"
    ],
    [
      "Ġth",
      "ing",
      "Ġthing"
    ],
    [
      "n",
      "t",
      "nt"
    ],
    [
      "Ġit",
      "s",
      "Ġits"
    ],
    [
      "Ġma",
      "ke",
      "Ġmake"
    ],
    [
      "or",
      "s",
      "ors"
    ],
    [
      "f",
      "or",
      "for"
    ],
    [
      "Ġthe",
      "n",
      "Ġthen"
    ],
    [
      "Ġg",
      "u",
      "Ġgu"
    ],
    [
      "v",
      "ing",
      "ving"
    ],
    [
      "Ġaf",
      "ter",
      "Ġafter"
    ],
    [
      "i",
      "le",
      "ile"
    ],
    [
      "Ġy",
      "e",
      "Ġye"
    ],
    [
      "ic",
      "t",
      "ict"
    ],
    [
      "ot",
      "her",
      "other"
    ],
    [
      "o",
      "se",
      "ose"
    ],
    [
      "Ġma",
      "k",
      "Ġmak"
    ],
    [
      "Ġf",
      "l",
      "Ġfl"
    ],
    [
      "Ġf",
      "un",
      "Ġfun"
    ],
    [
      "t",
      "e",
      "te"
    ],
    [
      "u",
      "ll",
      "ull"
    ],
    [
      "Ġmov",
      "ies",
      "Ġmovies"
    ],
    [
      "at",
      "ed",
      "ated"
    ],
    [
      "Ġse",
      "em",
      "Ġseem"
    ],
    [
      "ar",
      "y",
      "ary"
    ],
    [
      "c",
      "es",
      "ces"
    ],
    [
      "Ġin",
      "ter",
      "Ġinter"
    ],
    [
      "c",
      "c",
      "cc"
    ],
    [
      "Ġs",
      "er",
      "Ġser"
    ],
    [
      "g",
      "in",
      "gin"
    ],
    [
      "Ġwor",
      "k",
      "Ġwork"
    ],
    [
      "ic",
      "al",
      "ical"
    ],
    [
      "Ġcharact",
      "er",
      "Ġcharacter"
    ],
    [
      "Ġa",
      "w",
      "Ġaw"
    ],
    [
      "Ġpl",
      "ay",
      "Ġplay"
    ],
    [
      "ie",
      "w",
      "iew"
    ],
    [
      "p",
      "h",
      "ph"
    ],
    [
      "Ġcharact",
      "ers",
      "Ġcharacters"
    ],
    [
      "res",
      "s",
      "ress"
    ],
    [
      "ow",
      "n",
      "own"
    ],
    [
      "an",
      "s",
      "ans"
    ],
    [
      "t",
      "y",
      "ty"
    ],
    [
      "Ġpl",
      "ot",
      "Ġplot"
    ],
    [
      "Ġfilm",
      "s",
      "Ġfilms"
    ],
    [
      "u",
      "ally",
      "ually"
    ],
    [
      "pe",
      "ct",
      "pect"
    ],
    [
      "an",
      "ce",
      "ance"
    ],
    [
      "Ġlo",
      "ve",
      "Ġlove"
    ],
    [
      "Ġh",
      "o",
      "Ġho"
    ],
    [
      "Ġtw",
      "o",
      "Ġtwo"
    ],
    [
      "Ġg",
      "r",
      "Ġgr"
    ],
    [
      "Ġne",
      "ver",
      "Ġnever"
    ],
    [
      "Ġse",
      "en",
      "Ġseen"
    ],
    [
      "a",
      "ch",
      "ach"
    ],
    [
      "Ġbe",
      "ing",
      "Ġbeing"
    ],
    [
      "fe",
      "ct",
      "fect"
    ],
    [
      "e",
      "p",
      "ep"
    ],
    [
      "Ġw",
      "ant",
      "Ġwant"
    ],
    [
      "Ġman",
      "y",
      "Ġmany"
    ],
    [
      "Ġli",
      "fe",
      "Ġlife"
    ],
    [
      "se",
      "lf",
      "self"
    ],
    [
      "Ġwh",
      "ere",
      "Ġwhere"
    ],
    [
      "Ġyou",
      "r",
      "Ġyour"
    ],
    [
      "Ġd",
      "es",
      "Ġdes"
    ],
    [
      "Ġs",
      "om",
      "Ġsom"
    ],
    [
      "Ġact",
      "ing",
      "Ġacting"
    ],
    [
      "i",
      "z",
      "iz"
    ],
    [
      "itt",
      "le",
      "ittle"
    ],
    [
      "Ġb",
      "est",
      "Ġbest"
    ],
    [
      "n",
      "y",
      "ny"
    ],
    [
      "Ġl",
      "ittle",
      "Ġlittle"
    ],
    [
      "Ġh",
      "or",
      "Ġhor"
    ],
    [
      "Ġb",
      "ack",
      "Ġback"
    ],
    [
      "v",
      "ed",
      "ved"
    ],
    [
      "Ġ",
      "ve",
      "Ġve"
    ],
    [
      "w",
      "n",
      "wn"
    ],
    [
      "ur",
      "n",
      "urn"
    ],
    [
      "Ġsom",
      "et",
      "Ġsomet"
    ],
    [
      "en",
      "s",
      "ens"
    ],
    [
      "Ġ",
      "ent",
      "Ġent"
    ],
    [
      "i",
      "p",
      "ip"
    ],
    [
      "Ġs",
      "ay",
      "Ġsay"
    ],
    [
      "Ġthr",
      "ough",
      "Ġthrough"
    ],
    [
      "Ġp",
      "r",
      "Ġpr"
    ],
    [
      "Ġ",
      "2",
      "Ġ2"
    ],
    [
      "ar",
      "k",
      "ark"
    ],
    [
      "n",
      "e",
      "ne"
    ],
    [
      "at",
      "h",
      "ath"
    ],
    [
      "g",
      "et",
      "get"
    ],
    [
      "Ġre",
      "m",
      "Ġrem"
    ],
    [
      "Ġc",
      "r",
      "Ġcr"
    ],
    [
      "b",
      "er",
      "ber"
    ],
    [
      "Ġe",
      "ver",
      "Ġever"
    ],
    [
      "an",
      "g",
      "ang"
    ],
    [
      "Ġ1",
      "9",
      "Ġ19"
    ],
    [
      "a",
      "ke",
      "ake"
    ],
    [
      "il",
      "y",
      "ily"
    ],
    [
      "w",
      "e",
      "we"
    ],
    [
      "Ġm",
      "ay",
      "Ġmay"
    ],
    [
      "Ġs",
      "l",
      "Ġsl"
    ],
    [
      "Ġf",
      "o",
      "Ġfo"
    ],
    [
      "il",
      "d",
      "ild"
    ],
    [
      "Ġre",
      "c",
      "Ġrec"
    ],
    [
      "ul",
      "t",
      "ult"
    ],
    [
      "Ġs",
      "pe",
      "Ġspe"
    ],
    [
      "Ġst",
      "ill",
      "Ġstill"
    ],
    [
      "Ġh",
      "ere",
      "Ġhere"
    ],
    [
      "ot",
      "h",
      "oth"
    ],
    [
      "at",
      "her",
      "ather"
    ],
    [
      "i",
      "an",
      "ian"
    ],
    [
      "is",
      "e",
      "ise"
    ],
    [
      "i",
      "re",
      "ire"
    ],
    [
      "a",
      "ce",
      "ace"
    ],
    [
      "Ġbet",
      "ter",
      "Ġbetter"
    ],
    [
      "Ġ",
      "ke",
      "Ġke"
    ],
    [
      "ion",
      "s",
      "ions"
    ],
    [
      "ve",
      "l",
      "vel"
    ],
    [
      "Ġcon",
      "t",
      "Ġcont"
    ],
    [
      "Ġsh",
      "ould",
      "Ġshould"
    ],
    [
      "u",
      "al",
      "ual"
    ],
    [
      "d",
      "u",
      "du"
    ],
    [
      "Ġm",
      "in",
      "Ġmin"
    ],
    [
      "Ġper",
      "for",
      "Ġperfor"
    ],
    [
      "Ġag",
      "ain",
      "Ġagain"
    ],
    [
      "Ġu",
      "nder",
      "Ġunder"
    ],
    [
      "Ġat",
      "t",
      "Ġatt"
    ],
    [
      "Ġbe",
      "l",
      "Ġbel"
    ],
    [
      "Ġf",
      "ind",
      "Ġfind"
    ],
    [
      "i",
      "a",
      "ia"
    ],
    [
      "c",
      "o",
      "co"
    ],
    [
      "Ġne",
      "w",
      "Ġnew"
    ],
    [
      "Ġthe",
      "se",
      "Ġthese"
    ],
    [
      "Ġg",
      "i",
      "Ġgi"
    ],
    [
      "d",
      "e",
      "de"
    ],
    [
      "Ġk",
      "ill",
      "Ġkill"
    ],
    [
      "Ġscen",
      "e",
      "Ġscene"
    ],
    [
      "Ġd",
      "r",
      "Ġdr"
    ],
    [
      "Ġo",
      "ld",
      "Ġold"
    ],
    [
      "Ġfe",
      "el",
      "Ġfeel"
    ],
    [
      "au",
      "gh",
      "augh"
    ],
    [
      "th",
      "ing",
      "thing"
    ],
    [
      "Ġwh",
      "y",
      "Ġwhy"
    ],
    [
      "i",
      "gh",
      "igh"
    ],
    [
      "Ġwh",
      "ile",
      "Ġwhile"
    ],
    [
      "ver",
      "s",
      "vers"
    ],
    [
      "ou",
      "ght",
      "ought"
    ],
    [
      "as",
      "e",
      "ase"
    ],
    [
      "Ġsu",
      "ch",
      "Ġsuch"
    ],
    [
      "Ġscen",
      "es",
      "Ġscenes"
    ],
    [
      "Ġs",
      "im",
      "Ġsim"
    ],
    [
      "Ġn",
      "ow",
      "Ġnow"
    ],
    [
      "ert",
      "ain",
      "ertain"
    ],
    [
      "at",
      "er",
      "ater"
    ],
    [
      "Ġin",
      "c",
      "Ġinc"
    ],
    [
      "Ġ1",
      "0",
      "Ġ10"
    ],
    [
      "Ġe",
      "m",
      "Ġem"
    ],
    [
      "Ġsomet",
      "hing",
      "Ġsomething"
    ],
    [
      "n",
      "ing",
      "ning"
    ],
    [
      "Ġg",
      "en",
      "Ġgen"
    ],
    [
      "t",
      "ing",
      "ting"
    ],
    [
      "ie",
      "nd",
      "iend"
    ],
    [
      "ent",
      "s",
      "ents"
    ],
    [
      "Ġst",
      "r",
      "Ġstr"
    ],
    [
      "Ġa",
      "p",
      "Ġap"
    ],
    [
      "Ġc",
      "ast",
      "Ġcast"
    ],
    [
      "Ġha",
      "pp",
      "Ġhapp"
    ],
    [
      "Ġinter",
      "est",
      "Ġinterest"
    ],
    [
      "ab",
      "ly",
      "ably"
    ],
    [
      "Ġim",
      "p",
      "Ġimp"
    ],
    [
      "b",
      "e",
      "be"
    ],
    [
      "l",
      "i",
      "li"
    ],
    [
      "m",
      "e",
      "me"
    ],
    [
      "Ġh",
      "um",
      "Ġhum"
    ],
    [
      "Ġg",
      "ir",
      "Ġgir"
    ],
    [
      "Ġf",
      "am",
      "Ġfam"
    ],
    [
      "n",
      "g",
      "ng"
    ],
    [
      "Ġm",
      "us",
      "Ġmus"
    ],
    [
      "Ġe",
      "v",
      "Ġev"
    ],
    [
      "re",
      "e",
      "ree"
    ],
    [
      "Ġs",
      "ur",
      "Ġsur"
    ],
    [
      "Ġl",
      "ot",
      "Ġlot"
    ],
    [
      "Ġt",
      "ra",
      "Ġtra"
    ],
    [
      "at",
      "ing",
      "ating"
    ],
    [
      "d",
      "er",
      "der"
    ],
    [
      "as",
      "on",
      "ason"
    ],
    [
      "Ġf",
      "in",
      "Ġfin"
    ],
    [
      "Ġpo",
      "int",
      "Ġpoint"
    ],
    [
      "Ġb",
      "o",
      "Ġbo"
    ],
    [
      "a",
      "c",
      "ac"
    ],
    [
      "Ġsc",
      "re",
      "Ġscre"
    ],
    [
      "en",
      "se",
      "ense"
    ],
    [
      "Ġw",
      "om",
      "Ġwom"
    ],
    [
      "f",
      "ore",
      "fore"
    ],
    [
      "Ġth",
      "ose",
      "Ġthose"
    ],
    [
      "i",
      "f",
      "if"
    ],
    [
      "Ġperfor",
      "man",
      "Ġperforman"
    ],
    [
      "Ġc",
      "ar",
      "Ġcar"
    ],
    [
      "l",
      "ess",
      "less"
    ],
    [
      "ation",
      "s",
      "ations"
    ],
    [
      "al",
      "k",
      "alk"
    ],
    [
      "Ġre",
      "s",
      "Ġres"
    ],
    [
      "Ġc",
      "ou",
      "Ġcou"
    ],
    [
      "ar",
      "ly",
      "arly"
    ],
    [
      "Ġwatch",
      "ing",
      "Ġwatching"
    ],
    [
      "Ġth",
      "ough",
      "Ġthough"
    ],
    [
      "m",
      "o",
      "mo"
    ],
    [
      "Ġdoes",
      "n",
      "Ġdoesn"
    ],
    [
      "Ġde",
      "c",
      "Ġdec"
    ],
    [
      "Ġs",
      "et",
      "Ġset"
    ],
    [
      "Ġye",
      "ars",
      "Ġyears"
    ],
    [
      "Ġb",
      "ig",
      "Ġbig"
    ],
    [
      "Ġact",
      "ors",
      "Ġactors"
    ],
    [
      "Ġd",
      "own",
      "Ġdown"
    ],
    [
      "Ġdirect",
      "or",
      "Ġdirector"
    ],
    [
      "y",
      "ing",
      "ying"
    ],
    [
      "r",
      "or",
      "ror"
    ],
    [
      "Ġv",
      "iew",
      "Ġview"
    ],
    [
      "Ġch",
      "e",
      "Ġche"
    ],
    [
      "e",
      "ct",
      "ect"
    ],
    [
      "e",
      "ver",
      "ever"
    ],
    [
      "j",
      "oy",
      "joy"
    ],
    [
      "Ġyou",
      "ng",
      "Ġyoung"
    ],
    [
      "Ġgu",
      "y",
      "Ġguy"
    ],
    [
      "Ġcom",
      "p",
      "Ġcomp"
    ],
    [
      "Ġen",
      "joy",
      "Ġenjoy"
    ],
    [
      "Ġo",
      "b",
      "Ġob"
    ],
    [
      "i",
      "al",
      "ial"
    ],
    [
      "Ġdid",
      "n",
      "Ġdidn"
    ],
    [
      "Ġnot",
      "hing",
      "Ġnothing"
    ],
    [
      "Ġt",
      "er",
      "Ġter"
    ],
    [
      "Ġbe",
      "fore",
      "Ġbefore"
    ],
    [
      "Ġf",
      "act",
      "Ġfact"
    ],
    [
      "Ġcom",
      "ed",
      "Ġcomed"
    ],
    [
      "Ġfun",
      "ny",
      "Ġfunny"
    ],
    [
      "Ġt",
      "ak",
      "Ġtak"
    ],
    [
      "Ġst",
      "art",
      "Ġstart"
    ],
    [
      "Ġan",
      "other",
      "Ġanother"
    ],
    [
      "Ġm",
      "ar",
      "Ġmar"
    ],
    [
      "Ġact",
      "ually",
      "Ġactually"
    ],
    [
      "Ġmak",
      "es",
      "Ġmakes"
    ],
    [
      "Ġl",
      "ong",
      "Ġlong"
    ],
    [
      "Ġm",
      "is",
      "Ġmis"
    ],
    [
      "Ġo",
      "ri",
      "Ġori"
    ],
    [
      "Ġbel",
      "ie",
      "Ġbelie"
    ],
    [
      "Ġex",
      "ce",
      "Ġexce"
    ],
    [
      "Ġpro",
      "du",
      "Ġprodu"
    ],
    [
      "Ġfe",
      "w",
      "Ġfew"
    ],
    [
      "Ġh",
      "igh",
      "Ġhigh"
    ],
    [
      "Ġgir",
      "l",
      "Ġgirl"
    ],
    [
      "Ġw",
      "ar",
      "Ġwar"
    ],
    [
      "Ġre",
      "l",
      "Ġrel"
    ],
    [
      "Ġgo",
      "ing",
      "Ġgoing"
    ],
    [
      "f",
      "t",
      "ft"
    ],
    [
      "ut",
      "e",
      "ute"
    ],
    [
      "Ġ",
      "es",
      "Ġes"
    ],
    [
      "Ġg",
      "ot",
      "Ġgot"
    ],
    [
      "Ġw",
      "o",
      "Ġwo"
    ],
    [
      "Ġt",
      "urn",
      "Ġturn"
    ],
    [
      "Ġs",
      "ame",
      "Ġsame"
    ],
    [
      "Ġwor",
      "ld",
      "Ġworld"
    ],
    [
      "Ġt",
      "ri",
      "Ġtri"
    ],
    [
      "ers",
      "on",
      "erson"
    ],
    [
      "Ġori",
      "gin",
      "Ġorigin"
    ],
    [
      "i",
      "v",
      "iv"
    ],
    [
      "Ġsu",
      "pp",
      "Ġsupp"
    ],
    [
      "as",
      "h",
      "ash"
    ],
    [
      "Ġpre",
      "t",
      "Ġpret"
    ],
    [
      "a",
      "v",
      "av"
    ],
    [
      "a",
      "z",
      "az"
    ],
    [
      "Ġh",
      "ard",
      "Ġhard"
    ],
    [
      "i",
      "ence",
      "ience"
    ],
    [
      "Ġsu",
      "b",
      "Ġsub"
    ],
    [
      "Ġa",
      "pp",
      "Ġapp"
    ],
    [
      "Ġdi",
      "ff",
      "Ġdiff"
    ],
    [
      "Ġb",
      "it",
      "Ġbit"
    ],
    [
      "u",
      "b",
      "ub"
    ],
    [
      "Ġs",
      "m",
      "Ġsm"
    ],
    [
      "er",
      "ic",
      "eric"
    ],
    [
      "Ġo",
      "wn",
      "Ġown"
    ],
    [
      "Ġ",
      "z",
      "Ġz"
    ],
    [
      "Ġp",
      "h",
      "Ġph"
    ],
    [
      "a",
      "w",
      "aw"
    ],
    [
      "i",
      "ble",
      "ible"
    ],
    [
      "Ġin",
      "v",
      "Ġinv"
    ],
    [
      "Ġ",
      "ed",
      "Ġed"
    ],
    [
      "ci",
      "al",
      "cial"
    ],
    [
      "Ġs",
      "in",
      "Ġsin"
    ],
    [
      "Ġcom",
      "ple",
      "Ġcomple"
    ],
    [
      "Ġth",
      "ought",
      "Ġthought"
    ],
    [
      "oo",
      "l",
      "ool"
    ],
    [
      "ri",
      "pt",
      "ript"
    ],
    [
      "w",
      "h",
      "wh"
    ],
    [
      "Ġst",
      "u",
      "Ġstu"
    ],
    [
      "os",
      "s",
      "oss"
    ],
    [
      "Ġqu",
      "ite",
      "Ġquite"
    ],
    [
      "Ġf",
      "ar",
      "Ġfar"
    ],
    [
      "Ġfr",
      "iend",
      "Ġfriend"
    ],
    [
      "Ġthing",
      "s",
      "Ġthings"
    ],
    [
      "Ġscre",
      "en",
      "Ġscreen"
    ],
    [
      "Ġe",
      "l",
      "Ġel"
    ],
    [
      "Ġb",
      "u",
      "Ġbu"
    ],
    [
      "l",
      "es",
      "les"
    ],
    [
      "re",
      "n",
      "ren"
    ],
    [
      "Ġwo",
      "nder",
      "Ġwonder"
    ],
    [
      "Ġk",
      "id",
      "Ġkid"
    ],
    [
      "it",
      "ing",
      "iting"
    ],
    [
      "Ġin",
      "s",
      "Ġins"
    ],
    [
      "Ġl",
      "augh",
      "Ġlaugh"
    ],
    [
      "Ġhor",
      "ror",
      "Ġhorror"
    ],
    [
      "Ġr",
      "ight",
      "Ġright"
    ],
    [
      "a",
      "ut",
      "aut"
    ],
    [
      "Ġne",
      "ed",
      "Ġneed"
    ],
    [
      "Ġseem",
      "s",
      "Ġseems"
    ],
    [
      "ct",
      "ion",
      "ction"
    ],
    [
      "th",
      "is",
      "this"
    ],
    [
      "Ġorigin",
      "al",
      "Ġoriginal"
    ],
    [
      "Ġb",
      "as",
      "Ġbas"
    ],
    [
      "f",
      "fect",
      "ffect"
    ],
    [
      "Ġpret",
      "ty",
      "Ġpretty"
    ],
    [
      "Ġar",
      "ound",
      "Ġaround"
    ],
    [
      "Ġc",
      "am",
      "Ġcam"
    ],
    [
      "Ġhow",
      "ever",
      "Ġhowever"
    ],
    [
      "Ġt",
      "ake",
      "Ġtake"
    ],
    [
      "Ġa",
      "cc",
      "Ġacc"
    ],
    [
      "Ġe",
      "ffect",
      "Ġeffect"
    ],
    [
      "w",
      "ays",
      "ways"
    ],
    [
      "ing",
      "s",
      "ings"
    ],
    [
      "a",
      "ve",
      "ave"
    ],
    [
      "Ġb",
      "oth",
      "Ġboth"
    ],
    [
      "c",
      "ed",
      "ced"
    ],
    [
      "Ġin",
      "st",
      "Ġinst"
    ],
    [
      "Ġen",
      "ough",
      "Ġenough"
    ],
    [
      "i",
      "b",
      "ib"
    ],
    [
      "Ġp",
      "erson",
      "Ġperson"
    ],
    [
      "Ġhe",
      "l",
      "Ġhel"
    ],
    [
      "Ġser",
      "ies",
      "Ġseries"
    ],
    [
      "we",
      "en",
      "ween"
    ],
    [
      "Ġsc",
      "ript",
      "Ġscript"
    ],
    [
      "Ġbet",
      "ween",
      "Ġbetween"
    ],
    [
      "ic",
      "ally",
      "ically"
    ],
    [
      "Ġact",
      "ion",
      "Ġaction"
    ],
    [
      "ate",
      "ly",
      "ately"
    ],
    [
      "on",
      "s",
      "ons"
    ],
    [
      "Ġg",
      "ive",
      "Ġgive"
    ],
    [
      "Ġst",
      "e",
      "Ġste"
    ],
    [
      "Ġ",
      "3",
      "Ġ3"
    ],
    [
      "Ġse",
      "x",
      "Ġsex"
    ],
    [
      "Ġc",
      "ra",
      "Ġcra"
    ],
    [
      "Ġch",
      "ild",
      "Ġchild"
    ],
    [
      "Ġcl",
      "ass",
      "Ġclass"
    ],
    [
      "n",
      "ess",
      "ness"
    ],
    [
      "Ġk",
      "ind",
      "Ġkind"
    ],
    [
      "Ġap",
      "pe",
      "Ġappe"
    ],
    [
      "Ġre",
      "ad",
      "Ġread"
    ],
    [
      "Ġte",
      "ll",
      "Ġtell"
    ],
    [
      "Ġo",
      "p",
      "Ġop"
    ],
    [
      "Ġam",
      "eric",
      "Ġameric"
    ],
    [
      "r",
      "is",
      "ris"
    ],
    [
      "Ġal",
      "ways",
      "Ġalways"
    ],
    [
      "Ġbe",
      "aut",
      "Ġbeaut"
    ],
    [
      "Ġha",
      "nd",
      "Ġhand"
    ],
    [
      "Ġm",
      "ust",
      "Ġmust"
    ],
    [
      "ent",
      "ion",
      "ention"
    ],
    [
      "Ġc",
      "in",
      "Ġcin"
    ],
    [
      "Ġmus",
      "ic",
      "Ġmusic"
    ],
    [
      "Ġm",
      "om",
      "Ġmom"
    ],
    [
      "mo",
      "st",
      "most"
    ],
    [
      "Ġcomed",
      "y",
      "Ġcomedy"
    ],
    [
      "Ġc",
      "ome",
      "Ġcome"
    ],
    [
      "st",
      "er",
      "ster"
    ],
    [
      "Ġwith",
      "out",
      "Ġwithout"
    ],
    [
      "Ġcin",
      "em",
      "Ġcinem"
    ],
    [
      "Ġcon",
      "s",
      "Ġcons"
    ],
    [
      "ll",
      "y",
      "lly"
    ],
    [
      "Ġe",
      "p",
      "Ġep"
    ],
    [
      "Ġsa",
      "w",
      "Ġsaw"
    ],
    [
      "Ġfam",
      "ily",
      "Ġfamily"
    ],
    [
      "Ġro",
      "le",
      "Ġrole"
    ],
    [
      "Ġl",
      "ast",
      "Ġlast"
    ],
    [
      "Ġre",
      "ason",
      "Ġreason"
    ],
    [
      "Ġst",
      "ar",
      "Ġstar"
    ],
    [
      "Ġget",
      "s",
      "Ġgets"
    ],
    [
      "Ġl",
      "et",
      "Ġlet"
    ],
    [
      "Ġtim",
      "es",
      "Ġtimes"
    ],
    [
      "Ġis",
      "n",
      "Ġisn"
    ],
    [
      "Ġinterest",
      "ing",
      "Ġinteresting"
    ],
    [
      "Ġp",
      "ut",
      "Ġput"
    ],
    [
      "u",
      "g",
      "ug"
    ],
    [
      "ut",
      "es",
      "utes"
    ],
    [
      "v",
      "ious",
      "vious"
    ],
    [
      "a",
      "le",
      "ale"
    ],
    [
      "Ġre",
      "v",
      "Ġrev"
    ],
    [
      "Ġal",
      "most",
      "Ġalmost"
    ],
    [
      "Ġm",
      "on",
      "Ġmon"
    ],
    [
      "Ġle",
      "ast",
      "Ġleast"
    ],
    [
      "ic",
      "ul",
      "icul"
    ],
    [
      "Ġar",
      "t",
      "Ġart"
    ],
    [
      "Ġd",
      "one",
      "Ġdone"
    ],
    [
      "ou",
      "se",
      "ouse"
    ],
    [
      "Ġa",
      "ud",
      "Ġaud"
    ],
    [
      "Ġwho",
      "le",
      "Ġwhole"
    ],
    [
      "n",
      "er",
      "ner"
    ],
    [
      "od",
      "y",
      "ody"
    ],
    [
      "Ġsu",
      "re",
      "Ġsure"
    ],
    [
      "Ġle",
      "ad",
      "Ġlead"
    ],
    [
      "Ġsh",
      "ot",
      "Ġshot"
    ],
    [
      "ull",
      "y",
      "ully"
    ],
    [
      "e",
      "ad",
      "ead"
    ],
    [
      "w",
      "ard",
      "ward"
    ],
    [
      "ll",
      "ow",
      "llow"
    ],
    [
      "o",
      "ck",
      "ock"
    ],
    [
      "Ġ",
      "ll",
      "Ġll"
    ],
    [
      "Ġex",
      "pl",
      "Ġexpl"
    ],
    [
      "Ġc",
      "are",
      "Ġcare"
    ],
    [
      "Ġdiff",
      "er",
      "Ġdiffer"
    ],
    [
      "it",
      "s",
      "its"
    ],
    [
      "Ġc",
      "le",
      "Ġcle"
    ],
    [
      "Ġex",
      "pect",
      "Ġexpect"
    ],
    [
      "Ġb",
      "ook",
      "Ġbook"
    ],
    [
      "a",
      "pp",
      "app"
    ],
    [
      "ra",
      "ph",
      "raph"
    ],
    [
      "Ġm",
      "ight",
      "Ġmight"
    ],
    [
      "Ġs",
      "ound",
      "Ġsound"
    ],
    [
      "Ġcomple",
      "te",
      "Ġcomplete"
    ],
    [
      "Ġpro",
      "b",
      "Ġprob"
    ],
    [
      "Ġwor",
      "th",
      "Ġworth"
    ],
    [
      "Ġg",
      "l",
      "Ġgl"
    ],
    [
      "0",
      "0",
      "00"
    ],
    [
      "Ġr",
      "un",
      "Ġrun"
    ],
    [
      "k",
      "s",
      "ks"
    ],
    [
      "in",
      "es",
      "ines"
    ],
    [
      "Ġc",
      "our",
      "Ġcour"
    ],
    [
      "h",
      "n",
      "hn"
    ],
    [
      "Ġi",
      "de",
      "Ġide"
    ],
    [
      "Ġmin",
      "utes",
      "Ġminutes"
    ],
    [
      "or",
      "d",
      "ord"
    ],
    [
      "Ġmak",
      "ing",
      "Ġmaking"
    ],
    [
      "Ġany",
      "thing",
      "Ġanything"
    ],
    [
      "Ġsu",
      "per",
      "Ġsuper"
    ],
    [
      "Ġc",
      "all",
      "Ġcall"
    ],
    [
      "Ġma",
      "in",
      "Ġmain"
    ],
    [
      "Ġs",
      "ch",
      "Ġsch"
    ],
    [
      "Ġprob",
      "ably",
      "Ġprobably"
    ],
    [
      "Ġwom",
      "an",
      "Ġwoman"
    ],
    [
      "Ġperforman",
      "ce",
      "Ġperformance"
    ],
    [
      "ri",
      "ble",
      "rible"
    ],
    [
      "Ġbe",
      "gin",
      "Ġbegin"
    ],
    [
      "Ġsin",
      "ce",
      "Ġsince"
    ],
    [
      "Ġd",
      "ay",
      "Ġday"
    ],
    [
      "e",
      "ll",
      "ell"
    ],
    [
      "Ġn",
      "ight",
      "Ġnight"
    ],
    [
      "Ġt",
      "v",
      "Ġtv"
    ],
    [
      "s",
      "on",
      "son"
    ],
    [
      "an",
      "e",
      "ane"
    ],
    [
      "Ġent",
      "ertain",
      "Ġentertain"
    ],
    [
      "ur",
      "ing",
      "uring"
    ],
    [
      "Ġy",
      "et",
      "Ġyet"
    ],
    [
      "Ġb",
      "or",
      "Ġbor"
    ],
    [
      "Ġc",
      "a",
      "Ġca"
    ],
    [
      "Ġjo",
      "hn",
      "Ġjohn"
    ],
    [
      "st",
      "and",
      "stand"
    ],
    [
      "Ġaw",
      "ay",
      "Ġaway"
    ],
    [
      "Ġhel",
      "p",
      "Ġhelp"
    ],
    [
      "Ġb",
      "oy",
      "Ġboy"
    ],
    [
      "Ġp",
      "ol",
      "Ġpol"
    ],
    [
      "Ġme",
      "an",
      "Ġmean"
    ],
    [
      "Ġwor",
      "st",
      "Ġworst"
    ],
    [
      "ci",
      "ally",
      "cially"
    ],
    [
      "Ġex",
      "t",
      "Ġext"
    ],
    [
      "Ġm",
      "at",
      "Ġmat"
    ],
    [
      "one",
      "y",
      "oney"
    ],
    [
      "Ġp",
      "res",
      "Ġpres"
    ],
    [
      "a",
      "il",
      "ail"
    ],
    [
      "Ġse",
      "qu",
      "Ġsequ"
    ],
    [
      "Ġad",
      "d",
      "Ġadd"
    ],
    [
      "Ġt",
      "y",
      "Ġty"
    ],
    [
      "ig",
      "n",
      "ign"
    ],
    [
      "x",
      "t",
      "xt"
    ],
    [
      "an",
      "ge",
      "ange"
    ],
    [
      "Ġr",
      "ather",
      "Ġrather"
    ],
    [
      "Ġo",
      "ur",
      "Ġour"
    ],
    [
      "Ġro",
      "b",
      "Ġrob"
    ],
    [
      "Ġab",
      "s",
      "Ġabs"
    ],
    [
      "at",
      "ive",
      "ative"
    ],
    [
      "Ġcom",
      "m",
      "Ġcomm"
    ],
    [
      "Ġf",
      "ound",
      "Ġfound"
    ],
    [
      "th",
      "ough",
      "though"
    ],
    [
      "u",
      "res",
      "ures"
    ],
    [
      "Ġmis",
      "s",
      "Ġmiss"
    ],
    [
      "it",
      "ion",
      "ition"
    ],
    [
      "al",
      "og",
      "alog"
    ],
    [
      "Ġm",
      "ind",
      "Ġmind"
    ],
    [
      "is",
      "od",
      "isod"
    ],
    [
      "Ġep",
      "isod",
      "Ġepisod"
    ],
    [
      "is",
      "m",
      "ism"
    ],
    [
      "al",
      "s",
      "als"
    ],
    [
      "Ġl",
      "ess",
      "Ġless"
    ],
    [
      "ad",
      "y",
      "ady"
    ],
    [
      "Ġpo",
      "or",
      "Ġpoor"
    ],
    [
      "Ġ",
      "vers",
      "Ġvers"
    ],
    [
      "me",
      "nd",
      "mend"
    ],
    [
      "Ġany",
      "one",
      "Ġanyone"
    ],
    [
      "Ġplay",
      "ed",
      "Ġplayed"
    ],
    [
      "Ġsur",
      "p",
      "Ġsurp"
    ],
    [
      "Ġde",
      "f",
      "Ġdef"
    ],
    [
      "Ġin",
      "d",
      "Ġind"
    ],
    [
      "er",
      "a",
      "era"
    ],
    [
      "s",
      "s",
      "ss"
    ],
    [
      "Ġhapp",
      "en",
      "Ġhappen"
    ],
    [
      "Ġe",
      "ach",
      "Ġeach"
    ],
    [
      "Ġh",
      "al",
      "Ġhal"
    ],
    [
      "Ġdi",
      "alog",
      "Ġdialog"
    ],
    [
      "ist",
      "ic",
      "istic"
    ],
    [
      "Ġes",
      "pe",
      "Ġespe"
    ],
    [
      "Ġc",
      "re",
      "Ġcre"
    ],
    [
      "Ġan",
      "im",
      "Ġanim"
    ],
    [
      "l",
      "ed",
      "led"
    ],
    [
      "Ġespe",
      "cially",
      "Ġespecially"
    ],
    [
      "co",
      "nd",
      "cond"
    ],
    [
      "Ġa",
      "c",
      "Ġac"
    ],
    [
      "Ġcour",
      "se",
      "Ġcourse"
    ],
    [
      "Ġb",
      "ud",
      "Ġbud"
    ],
    [
      "j",
      "ect",
      "ject"
    ],
    [
      "Ġm",
      "ur",
      "Ġmur"
    ],
    [
      "Ġe",
      "y",
      "Ġey"
    ],
    [
      "Ġke",
      "ep",
      "Ġkeep"
    ],
    [
      "Ġbelie",
      "ve",
      "Ġbelieve"
    ],
    [
      "Ġal",
      "though",
      "Ġalthough"
    ],
    [
      "os",
      "ed",
      "osed"
    ],
    [
      "Ġs",
      "k",
      "Ġsk"
    ],
    [
      "em",
      "ber",
      "ember"
    ],
    [
      "t",
      "en",
      "ten"
    ],
    [
      "l",
      "ing",
      "ling"
    ],
    [
      "Ġtr",
      "ying",
      "Ġtrying"
    ],
    [
      "Ġli",
      "k",
      "Ġlik"
    ],
    [
      "Ġjo",
      "b",
      "Ġjob"
    ],
    [
      "Ġse",
      "cond",
      "Ġsecond"
    ],
    [
      "um",
      "b",
      "umb"
    ],
    [
      "Ġcom",
      "es",
      "Ġcomes"
    ],
    [
      "Ġp",
      "ort",
      "Ġport"
    ],
    [
      "Ġha",
      "ving",
      "Ġhaving"
    ],
    [
      "Ġpl",
      "ace",
      "Ġplace"
    ],
    [
      "w",
      "ood",
      "wood"
    ],
    [
      "Ġun",
      "f",
      "Ġunf"
    ],
    [
      "as",
      "ter",
      "aster"
    ],
    [
      "Ġye",
      "ar",
      "Ġyear"
    ],
    [
      "re",
      "t",
      "ret"
    ],
    [
      "v",
      "d",
      "vd"
    ],
    [
      "Ġbl",
      "ack",
      "Ġblack"
    ],
    [
      "ith",
      "er",
      "ither"
    ],
    [
      "Ġdiffer",
      "ent",
      "Ġdifferent"
    ],
    [
      "og",
      "raph",
      "ograph"
    ],
    [
      "Ġper",
      "fect",
      "Ġperfect"
    ],
    [
      "Ġcon",
      "f",
      "Ġconf"
    ],
    [
      "r",
      "ist",
      "rist"
    ],
    [
      "Ġg",
      "ra",
      "Ġgra"
    ],
    [
      "Ġh",
      "ouse",
      "Ġhouse"
    ],
    [
      "Ġre",
      "st",
      "Ġrest"
    ],
    [
      "Ġdr",
      "am",
      "Ġdram"
    ],
    [
      "Ġde",
      "p",
      "Ġdep"
    ],
    [
      "Ġs",
      "ense",
      "Ġsense"
    ],
    [
      "Ġact",
      "or",
      "Ġactor"
    ],
    [
      "Ġgo",
      "es",
      "Ġgoes"
    ],
    [
      "i",
      "fe",
      "ife"
    ],
    [
      "ble",
      "m",
      "blem"
    ],
    [
      "Ġend",
      "ing",
      "Ġending"
    ],
    [
      "Ġlook",
      "ing",
      "Ġlooking"
    ],
    [
      "i",
      "o",
      "io"
    ],
    [
      "Ġst",
      "and",
      "Ġstand"
    ],
    [
      "Ġd",
      "vd",
      "Ġdvd"
    ],
    [
      "a",
      "h",
      "ah"
    ],
    [
      "Ġd",
      "an",
      "Ġdan"
    ],
    [
      "Ġpro",
      "blem",
      "Ġproblem"
    ],
    [
      "Ġlook",
      "s",
      "Ġlooks"
    ],
    [
      "ment",
      "s",
      "ments"
    ],
    [
      "Ġ",
      "4",
      "Ġ4"
    ],
    [
      "Ġm",
      "oney",
      "Ġmoney"
    ],
    [
      "at",
      "es",
      "ates"
    ],
    [
      "Ġhe",
      "ad",
      "Ġhead"
    ],
    [
      "Ġtr",
      "ue",
      "Ġtrue"
    ],
    [
      "Ġwas",
      "n",
      "Ġwasn"
    ],
    [
      "Ġc",
      "reat",
      "Ġcreat"
    ],
    [
      "it",
      "er",
      "iter"
    ],
    [
      "Ġsome",
      "one",
      "Ġsomeone"
    ],
    [
      "l",
      "ud",
      "lud"
    ],
    [
      "an",
      "k",
      "ank"
    ],
    [
      "ing",
      "ly",
      "ingly"
    ],
    [
      "Ġsh",
      "ort",
      "Ġshort"
    ],
    [
      "Ġn",
      "or",
      "Ġnor"
    ],
    [
      "em",
      "pt",
      "empt"
    ],
    [
      "Ġf",
      "an",
      "Ġfan"
    ],
    [
      "Ġp",
      "ow",
      "Ġpow"
    ],
    [
      "ne",
      "y",
      "ney"
    ],
    [
      "o",
      "int",
      "oint"
    ],
    [
      "Ġshow",
      "s",
      "Ġshows"
    ],
    [
      "Ġl",
      "ow",
      "Ġlow"
    ],
    [
      "ie",
      "ce",
      "iece"
    ],
    [
      "Ġhal",
      "f",
      "Ġhalf"
    ],
    [
      "om",
      "mend",
      "ommend"
    ],
    [
      "Ġevery",
      "thing",
      "Ġeverything"
    ],
    [
      "i",
      "ful",
      "iful"
    ],
    [
      "Ġfo",
      "llow",
      "Ġfollow"
    ],
    [
      "Ġmay",
      "be",
      "Ġmaybe"
    ],
    [
      "Ġan",
      "n",
      "Ġann"
    ],
    [
      "Ġrec",
      "ommend",
      "Ġrecommend"
    ],
    [
      "Ġv",
      "is",
      "Ġvis"
    ],
    [
      "ic",
      "s",
      "ics"
    ],
    [
      "Ġf",
      "all",
      "Ġfall"
    ],
    [
      "Ġth",
      "ree",
      "Ġthree"
    ],
    [
      "Ġon",
      "ce",
      "Ġonce"
    ],
    [
      "Ġto",
      "get",
      "Ġtoget"
    ],
    [
      "Ġtoget",
      "her",
      "Ġtogether"
    ],
    [
      "Ġn",
      "ice",
      "Ġnice"
    ],
    [
      "Ġe",
      "ar",
      "Ġear"
    ],
    [
      "Ġm",
      "en",
      "Ġmen"
    ],
    [
      "Ġd",
      "ra",
      "Ġdra"
    ],
    [
      "Ġp",
      "oss",
      "Ġposs"
    ],
    [
      "Ġp",
      "a",
      "Ġpa"
    ],
    [
      "Ġim",
      "ag",
      "Ġimag"
    ],
    [
      "h",
      "ip",
      "hip"
    ],
    [
      "Ġm",
      "or",
      "Ġmor"
    ],
    [
      "Ġfa",
      "v",
      "Ġfav"
    ],
    [
      "are",
      "nt",
      "arent"
    ],
    [
      "Ġt",
      "alk",
      "Ġtalk"
    ],
    [
      "Ġs",
      "ing",
      "Ġsing"
    ],
    [
      "Ġd",
      "et",
      "Ġdet"
    ],
    [
      "Ġde",
      "ath",
      "Ġdeath"
    ],
    [
      "Ġameric",
      "an",
      "Ġamerican"
    ],
    [
      "ap",
      "s",
      "aps"
    ],
    [
      "id",
      "er",
      "ider"
    ],
    [
      "Ġen",
      "g",
      "Ġeng"
    ],
    [
      "Ġ",
      "5",
      "Ġ5"
    ],
    [
      "u",
      "es",
      "ues"
    ],
    [
      "Ġto",
      "p",
      "Ġtop"
    ],
    [
      "n",
      "o",
      "no"
    ],
    [
      "Ġsa",
      "id",
      "Ġsaid"
    ],
    [
      "Ġob",
      "vious",
      "Ġobvious"
    ],
    [
      "Ġr",
      "om",
      "Ġrom"
    ],
    [
      "al",
      "ity",
      "ality"
    ],
    [
      "Ġc",
      "ertain",
      "Ġcertain"
    ],
    [
      "Ġaud",
      "ience",
      "Ġaudience"
    ],
    [
      "Ġwatch",
      "ed",
      "Ġwatched"
    ],
    [
      "Ġd",
      "re",
      "Ġdre"
    ],
    [
      "Ġfor",
      "m",
      "Ġform"
    ],
    [
      "Ġe",
      "le",
      "Ġele"
    ],
    [
      "Ġevery",
      "one",
      "Ġeveryone"
    ],
    [
      "Ġspe",
      "cial",
      "Ġspecial"
    ],
    [
      "Ġle",
      "ft",
      "Ġleft"
    ],
    [
      "Ġs",
      "it",
      "Ġsit"
    ],
    [
      "Ġtak",
      "es",
      "Ġtakes"
    ],
    [
      "ll",
      "ent",
      "llent"
    ],
    [
      "Ġinst",
      "ead",
      "Ġinstead"
    ],
    [
      "Ġbeaut",
      "iful",
      "Ġbeautiful"
    ],
    [
      "Ġh",
      "our",
      "Ġhour"
    ],
    [
      "Ġc",
      "or",
      "Ġcor"
    ],
    [
      "ort",
      "un",
      "ortun"
    ],
    [
      "Ġde",
      "ad",
      "Ġdead"
    ],
    [
      "Ġpl",
      "ays",
      "Ġplays"
    ],
    [
      "r",
      "ay",
      "ray"
    ],
    [
      "Ġunder",
      "stand",
      "Ġunderstand"
    ],
    [
      "Ġl",
      "ater",
      "Ġlater"
    ],
    [
      "Ġs",
      "y",
      "Ġsy"
    ],
    [
      "Ġhim",
      "self",
      "Ġhimself"
    ],
    [
      "Ġrev",
      "iew",
      "Ġreview"
    ],
    [
      "Ġel",
      "se",
      "Ġelse"
    ],
    [
      "il",
      "ar",
      "ilar"
    ],
    [
      "le",
      "as",
      "leas"
    ],
    [
      "Ġt",
      "it",
      "Ġtit"
    ],
    [
      "Ġw",
      "ife",
      "Ġwife"
    ],
    [
      "Ġeffect",
      "s",
      "Ġeffects"
    ],
    [
      "Ġp",
      "ar",
      "Ġpar"
    ],
    [
      "Ġ",
      "8",
      "Ġ8"
    ],
    [
      "Ġb",
      "re",
      "Ġbre"
    ],
    [
      "Ġf",
      "ather",
      "Ġfather"
    ],
    [
      "w",
      "ay",
      "way"
    ],
    [
      "Ġsu",
      "s",
      "Ġsus"
    ],
    [
      "Ġd",
      "uring",
      "Ġduring"
    ],
    [
      "c",
      "ing",
      "cing"
    ],
    [
      "Ġvers",
      "ion",
      "Ġversion"
    ],
    [
      "Ġexce",
      "llent",
      "Ġexcellent"
    ],
    [
      "Ġch",
      "rist",
      "Ġchrist"
    ],
    [
      "Ġl",
      "u",
      "Ġlu"
    ],
    [
      "am",
      "es",
      "ames"
    ],
    [
      "Ġh",
      "ar",
      "Ġhar"
    ],
    [
      "Ġsim",
      "p",
      "Ġsimp"
    ],
    [
      "lly",
      "wood",
      "llywood"
    ],
    [
      "en",
      "ces",
      "ences"
    ],
    [
      "g",
      "r",
      "gr"
    ],
    [
      "Ġhe",
      "art",
      "Ġheart"
    ],
    [
      "Ġre",
      "p",
      "Ġrep"
    ],
    [
      "Ġh",
      "ome",
      "Ġhome"
    ],
    [
      "Ġex",
      "c",
      "Ġexc"
    ],
    [
      "Ġsee",
      "ing",
      "Ġseeing"
    ],
    [
      "d",
      "d",
      "dd"
    ],
    [
      "Ġt",
      "al",
      "Ġtal"
    ],
    [
      "s",
      "y",
      "sy"
    ],
    [
      "Ġ",
      "7",
      "Ġ7"
    ],
    [
      "Ġst",
      "y",
      "Ġsty"
    ],
    [
      "g",
      "g",
      "gg"
    ],
    [
      "Ġc",
      "ame",
      "Ġcame"
    ],
    [
      "i",
      "er",
      "ier"
    ],
    [
      "at",
      "ic",
      "atic"
    ],
    [
      "l",
      "and",
      "land"
    ],
    [
      "ut",
      "h",
      "uth"
    ],
    [
      "th",
      "e",
      "the"
    ],
    [
      "Ġf",
      "ight",
      "Ġfight"
    ],
    [
      "it",
      "ed",
      "ited"
    ],
    [
      "Ġfriend",
      "s",
      "Ġfriends"
    ],
    [
      "Ġas",
      "s",
      "Ġass"
    ],
    [
      "Ġu",
      "se",
      "Ġuse"
    ],
    [
      "Ġent",
      "ire",
      "Ġentire"
    ],
    [
      "p",
      "id",
      "pid"
    ],
    [
      "Ġide",
      "a",
      "Ġidea"
    ],
    [
      "om",
      "b",
      "omb"
    ],
    [
      "ist",
      "s",
      "ists"
    ],
    [
      "Ġbe",
      "h",
      "Ġbeh"
    ],
    [
      "d",
      "ay",
      "day"
    ],
    [
      "Ġtr",
      "u",
      "Ġtru"
    ],
    [
      "Ġhis",
      "t",
      "Ġhist"
    ],
    [
      "Ġre",
      "t",
      "Ġret"
    ],
    [
      "f",
      "ully",
      "fully"
    ],
    [
      "Ġdef",
      "in",
      "Ġdefin"
    ],
    [
      "ion",
      "al",
      "ional"
    ],
    [
      "Ġinc",
      "lud",
      "Ġinclud"
    ],
    [
      "Ġrem",
      "ember",
      "Ġremember"
    ],
    [
      "Ġfe",
      "at",
      "Ġfeat"
    ],
    [
      "Ġinv",
      "ol",
      "Ġinvol"
    ],
    [
      "Ġex",
      "p",
      "Ġexp"
    ],
    [
      "Ġc",
      "ol",
      "Ġcol"
    ],
    [
      "Ġto",
      "t",
      "Ġtot"
    ],
    [
      "Ġun",
      "t",
      "Ġunt"
    ],
    [
      "id",
      "es",
      "ides"
    ],
    [
      "Ġp",
      "ict",
      "Ġpict"
    ],
    [
      "Ġhum",
      "an",
      "Ġhuman"
    ],
    [
      "Ġd",
      "ist",
      "Ġdist"
    ],
    [
      "t",
      "ed",
      "ted"
    ],
    [
      "i",
      "red",
      "ired"
    ],
    [
      "it",
      "ch",
      "itch"
    ],
    [
      "Ġre",
      "f",
      "Ġref"
    ],
    [
      "Ġs",
      "ad",
      "Ġsad"
    ],
    [
      "Ġser",
      "ious",
      "Ġserious"
    ],
    [
      "Ġl",
      "ine",
      "Ġline"
    ],
    [
      "Ġb",
      "ra",
      "Ġbra"
    ],
    [
      "Ġv",
      "i",
      "Ġvi"
    ],
    [
      "Ġw",
      "a",
      "Ġwa"
    ],
    [
      "Ġdis",
      "app",
      "Ġdisapp"
    ],
    [
      "v",
      "in",
      "vin"
    ],
    [
      "ir",
      "d",
      "ird"
    ],
    [
      "Ġm",
      "em",
      "Ġmem"
    ],
    [
      "Ġcou",
      "nt",
      "Ġcount"
    ],
    [
      "Ġv",
      "ide",
      "Ġvide"
    ],
    [
      "Ġr",
      "a",
      "Ġra"
    ],
    [
      "Ġsimp",
      "ly",
      "Ġsimply"
    ],
    [
      "Ġb",
      "ar",
      "Ġbar"
    ],
    [
      "Ġho",
      "llywood",
      "Ġhollywood"
    ],
    [
      "Ġstu",
      "pid",
      "Ġstupid"
    ],
    [
      "Ġd",
      "ark",
      "Ġdark"
    ],
    [
      "t",
      "on",
      "ton"
    ],
    [
      "Ġdisapp",
      "oint",
      "Ġdisappoint"
    ],
    [
      "Ġcomplete",
      "ly",
      "Ġcompletely"
    ],
    [
      "Ġatt",
      "empt",
      "Ġattempt"
    ],
    [
      "Ġbud",
      "get",
      "Ġbudget"
    ],
    [
      "Ġl",
      "ack",
      "Ġlack"
    ],
    [
      "i",
      "x",
      "ix"
    ],
    [
      "im",
      "e",
      "ime"
    ],
    [
      "Ġgen",
      "er",
      "Ġgener"
    ],
    [
      "ra",
      "ct",
      "ract"
    ],
    [
      "Ġher",
      "o",
      "Ġhero"
    ],
    [
      "Ġs",
      "ong",
      "Ġsong"
    ],
    [
      "a",
      "red",
      "ared"
    ],
    [
      "Ġm",
      "ess",
      "Ġmess"
    ],
    [
      "Ġst",
      "ud",
      "Ġstud"
    ],
    [
      "Ġex",
      "per",
      "Ġexper"
    ],
    [
      "Ġe",
      "as",
      "Ġeas"
    ],
    [
      "ain",
      "s",
      "ains"
    ],
    [
      "Ġe",
      "ither",
      "Ġeither"
    ],
    [
      "ro",
      "ss",
      "ross"
    ],
    [
      "Ġtr",
      "y",
      "Ġtry"
    ],
    [
      "Ġwr",
      "ong",
      "Ġwrong"
    ],
    [
      "Ġf",
      "ull",
      "Ġfull"
    ],
    [
      "Ġho",
      "pe",
      "Ġhope"
    ],
    [
      "Ġs",
      "w",
      "Ġsw"
    ],
    [
      "ol",
      "ute",
      "olute"
    ],
    [
      "c",
      "y",
      "cy"
    ],
    [
      "Ġkid",
      "s",
      "Ġkids"
    ],
    [
      "Ġv",
      "o",
      "Ġvo"
    ],
    [
      "Ġsupp",
      "osed",
      "Ġsupposed"
    ],
    [
      "Ġn",
      "at",
      "Ġnat"
    ],
    [
      "an",
      "n",
      "ann"
    ],
    [
      "Ġus",
[...]
